{
  "version": "1.0",
  "truncation": null,
  "padding": null,
  "added_tokens": [
    {
      "id": 0,
      "content": "[PAD]",
      "single_word": false,
      "lstrip": false,
      "rstrip": false,
      "normalized": false,
      "special": true
    },
    {
      "id": 1,
      "content": "[UNK]",
      "single_word": false,
      "lstrip": false,
      "rstrip": false,
      "normalized": false,
      "special": true
    },
    {
      "id": 2,
      "content": "[CLS]",
      "single_word": false,
      "lstrip": false,
      "rstrip": false,
      "normalized": false,
      "special": true
    },
    {
      "id": 3,
      "content": "[SEP]",
      "single_word": false,
      "lstrip": false,
      "rstrip": false,
      "normalized": false,
      "special": true
    },
    {
      "id": 4,
      "content": "[MASK]",
      "single_word": false,
      "lstrip": false,
      "rstrip": false,
      "normalized": false,
      "special": true
    }
  ],
  "normalizer": null,
  "pre_tokenizer": {
    "type": "ByteLevel",
    "add_prefix_space": false,
    "trim_offsets": true,
    "use_regex": true
  },
  "post_processor": null,
  "decoder": {
    "type": "ByteLevel",
    "add_prefix_space": true,
    "trim_offsets": true,
    "use_regex": true
  },
  "model": {
    "type": "BPE",
    "dropout": null,
    "unk_token": "[UNK]",
    "continuing_subword_prefix": null,
    "end_of_word_suffix": null,
    "fuse_unk": false,
    "byte_fallback": false,
    "ignore_merges": false,
    "vocab": {
      "[PAD]": 0,
      "[UNK]": 1,
      "[CLS]": 2,
      "[SEP]": 3,
      "[MASK]": 4,
      "!": 5,
      "\"": 6,
      "#": 7,
      "$": 8,
      "%": 9,
      "&": 10,
      "'": 11,
      "(": 12,
      ")": 13,
      "*": 14,
      "+": 15,
      ",": 16,
      "-": 17,
      ".": 18,
      "/": 19,
      "0": 20,
      "1": 21,
      "2": 22,
      "3": 23,
      "4": 24,
      "5": 25,
      "6": 26,
      "7": 27,
      "8": 28,
      "9": 29,
      ":": 30,
      ";": 31,
      "<": 32,
      "=": 33,
      ">": 34,
      "?": 35,
      "@": 36,
      "A": 37,
      "B": 38,
      "C": 39,
      "D": 40,
      "E": 41,
      "F": 42,
      "G": 43,
      "H": 44,
      "I": 45,
      "J": 46,
      "K": 47,
      "L": 48,
      "M": 49,
      "N": 50,
      "O": 51,
      "P": 52,
      "Q": 53,
      "R": 54,
      "S": 55,
      "T": 56,
      "U": 57,
      "V": 58,
      "W": 59,
      "X": 60,
      "Y": 61,
      "Z": 62,
      "[": 63,
      "\\": 64,
      "]": 65,
      "^": 66,
      "_": 67,
      "`": 68,
      "a": 69,
      "b": 70,
      "c": 71,
      "d": 72,
      "e": 73,
      "f": 74,
      "g": 75,
      "h": 76,
      "i": 77,
      "j": 78,
      "k": 79,
      "l": 80,
      "m": 81,
      "n": 82,
      "o": 83,
      "p": 84,
      "q": 85,
      "r": 86,
      "s": 87,
      "t": 88,
      "u": 89,
      "v": 90,
      "w": 91,
      "x": 92,
      "y": 93,
      "z": 94,
      "{": 95,
      "|": 96,
      "}": 97,
      "~": 98,
      "¢": 99,
      "¥": 100,
      "¦": 101,
      "¨": 102,
      "«": 103,
      "®": 104,
      "´": 105,
      "º": 106,
      "»": 107,
      "¼": 108,
      "½": 109,
      "¾": 110,
      "¿": 111,
      "Â": 112,
      "Å": 113,
      "Ê": 114,
      "á": 115,
      "â": 116,
      "ã": 117,
      "å": 118,
      "ï": 119,
      "ð": 120,
      "ĉ": 121,
      "Ċ": 122,
      "Č": 123,
      "Ġ": 124,
      "Ģ": 125,
      "Ĥ": 126,
      "ĥ": 127,
      "Ħ": 128,
      "ħ": 129,
      "Ĩ": 130,
      "ĩ": 131,
      "Ī": 132,
      "ī": 133,
      "Ĭ": 134,
      "ĭ": 135,
      "Į": 136,
      "į": 137,
      "İ": 138,
      "ı": 139,
      "Ĳ": 140,
      "ĳ": 141,
      "Ĵ": 142,
      "ĵ": 143,
      "Ķ": 144,
      "ĺ": 145,
      "Ļ": 146,
      "Ľ": 147,
      "ľ": 148,
      "Ŀ": 149,
      "ŀ": 150,
      "Ł": 151,
      "on": 152,
      "le": 153,
      "\"\"": 154,
      "rt": 155,
      "ti": 156,
      "</": 157,
      "Ġon": 158,
      "lert": 159,
      "alert": 160,
      "st": 161,
      "=\"\"": 162,
      "te": 163,
      "yle": 164,
      "style": 165,
      ">\"": 166,
      "><": 167,
      "ra": 168,
      "\"<": 169,
      "oc": 170,
      "di": 171,
      "in": 172,
      "pti": 173,
      "ry": 174,
      "uz": 175,
      "non": 176,
      "Anon": 177,
      "Kry": 178,
      "Quz": 179,
      "ptiQuz": 180,
      "AnonKry": 181,
      "AnonKryptiQuz": 182,
      "ta": 183,
      ")\"\"": 184,
      "pt": 185,
      "me": 186,
      "tion": 187,
      "Ġstyle": 188,
      "cr": 189,
      "scr": 190,
      "ipt": 191,
      "ro": 192,
      "loc": 193,
      "script": 194,
      "ma": 195,
      "con": 196,
      "sp": 197,
      "la": 198,
      "ut": 199,
      "us": 200,
      "br": 201,
      "&#": 202,
      "de": 203,
      "ble": 204,
      "re": 205,
      "lock": 206,
      "block": 207,
      "lay": 208,
      "disp": 209,
      "display": 210,
      "></": 211,
      "rag": 212,
      "drag": 213,
      "lo": 214,
      "co": 215,
      "va": 216,
      "an": 217,
      "nte": 218,
      "id": 219,
      "10": 220,
      "mo": 221,
      "ima": 222,
      "nt": 223,
      "Ġid": 224,
      "conte": 225,
      "tr": 226,
      "er": 227,
      "ue": 228,
      "sv": 229,
      "table": 230,
      "ns": 231,
      "tra": 232,
      "mous": 233,
      "Ġconte": 234,
      "ditable": 235,
      "li": 236,
      "nteditable": 237,
      "Ġcontenteditable": 238,
      "Ġonmous": 239,
      "trans": 240,
      "imation": 241,
      "po": 242,
      "svg": 243,
      "Ġonmouse": 244,
      "fo": 245,
      "ge": 246,
      "\"\"\"": 247,
      "ition": 248,
      "101": 249,
      "animation": 250,
      "rom": 251,
      "ke": 252,
      "ocus": 253,
      "focus": 254,
      "do": 255,
      "00": 256,
      "ja": 257,
      "rame": 258,
      "true": 259,
      "transition": 260,
      "frame": 261,
      "rm": 262,
      "key": 263,
      "}</": 264,
      "83": 265,
      "Ġ{": 266,
      "ga": 267,
      "ck": 268,
      "java": 269,
      "dragga": 270,
      "draggable": 271,
      "Ġdraggable": 272,
      "be": 273,
      ")\"\">": 274,
      "doc": 275,
      "docu": 276,
      "ment": 277,
      "Ġta": 278,
      "dex": 279,
      "index": 280,
      "javascript": 281,
      ")></": 282,
      "bindex": 283,
      "Ġtabindex": 284,
      "so": 285,
      "Ġondrag": 286,
      "fi": 287,
      "div": 288,
      "se": 289,
      "ad": 290,
      "lick": 291,
      "he": 292,
      "ha": 293,
      "nd": 294,
      "document": 295,
      "ve": 296,
      "get": 297,
      "put": 298,
      "97": 299,
      "rc": 300,
      "ver": 301,
      "ki": 302,
      "rget": 303,
      "up": 304,
      ")>": 305,
      "Ġa": 306,
      "uto": 307,
      "input": 308,
      "SS": 309,
      "Ġonbe": 310,
      "('": 311,
      "XSS": 312,
      "lor": 313,
      "color": 314,
      "im": 315,
      "click": 316,
      "to": 317,
      ")\"\"></": 318,
      "inte": 319,
      "//": 320,
      "frames": 321,
      "ror": 322,
      "Ġx": 323,
      ");": 324,
      "prom": 325,
      "prompt": 326,
      "ss": 327,
      "utofocus": 328,
      "img": 329,
      "out": 330,
      "target": 331,
      "Ġautofocus": 332,
      "))": 333,
      "src": 334,
      "firm": 335,
      ">@": 336,
      "confirm": 337,
      "from": 338,
      "pointe": 339,
      "na": 340,
      "log": 341,
      "keyframes": 342,
      "nter": 343,
      "Ġonpointe": 344,
      "error": 345,
      "fore": 346,
      "88": 347,
      "Ġonbefore": 348,
      "Co": 349,
      "over": 350,
      "ing": 351,
      "mp": 352,
      "load": 353,
      "Ġonfocus": 354,
      "ite": 355,
      "dow": 356,
      "conso": 357,
      "enter": 358,
      "22": 359,
      "Str": 360,
      "end": 361,
      "name": 362,
      "Ġontransition": 363,
      ">:": 364,
      "27": 365,
      ";}</": 366,
      "rCo": 367,
      "rop": 368,
      "oN": 369,
      "String": 370,
      "form": 371,
      "art": 372,
      "ht": 373,
      "val": 374,
      "sh": 375,
      "drop": 376,
      "oki": 377,
      "fromC": 378,
      "main": 379,
      "Ġsrc": 380,
      "Ġ1": 381,
      "ration": 382,
      "Ġme": 383,
      "el": 384,
      "Ġonerror": 385,
      "')": 386,
      "\"\"\"><": 387,
      "cooki": 388,
      "no": 389,
      "Ġonkey": 390,
      "ab": 391,
      "ress": 392,
      "but": 393,
      "ton": 394,
      "button": 395,
      "ĠoN": 396,
      "bl": 397,
      "da": 398,
      "start": 399,
      "Ġonload": 400,
      "ac": 401,
      "can": 402,
      "Ġonpointer": 403,
      "tex": 404,
      "bo": 405,
      "px": 406,
      "Ġonanimation": 407,
      "down": 408,
      "ave": 409,
      "/*": 410,
      "red": 411,
      "gg": 412,
      "domain": 413,
      "leave": 414,
      ")</": 415,
      "Ġ'": 416,
      "togg": 417,
      "nu": 418,
      "console": 419,
      "transform": 420,
      "harCo": 421,
      "harCode": 422,
      "fromCharCode": 423,
      "cookie": 424,
      "Ġonclick": 425,
      "lt": 426,
      "value": 427,
      "menu": 428,
      "ation": 429,
      "ct": 430,
      "location": 431,
      "ute": 432,
      "Ġonmouseover": 433,
      "ml": 434,
      "gt": 435,
      "Ġvalue": 436,
      "ru": 437,
      "Ġhe": 438,
      "pr": 439,
      "em": 440,
      "qu": 441,
      "/>": 442,
      "we": 443,
      "\\\\": 444,
      "sli": 445,
      "{}</": 446,
      "web": 447,
      "slide": 448,
      "webki": 449,
      "iteration": 450,
      "Ġhere": 451,
      "slidein": 452,
      "Ġonwebki": 453,
      ")>\"": 454,
      "ft": 455,
      "pa": 456,
      "Ġ\"\"\"": 457,
      "toggle": 458,
      "Ġ10": 459,
      "Ġpo": 460,
      "Ġpopo": 461,
      "Csvg": 462,
      "Ġonmouseenter": 463,
      "ol": 464,
      "left": 465,
      ";}": 466,
      "dy": 467,
      "cel": 468,
      "cancel": 469,
      "ide": 470,
      "th": 471,
      "hash": 472,
      "set": 473,
      "acti": 474,
      "body": 475,
      "vate": 476,
      "activate": 477,
      ";\"\"": 478,
      "col": 479,
      "gro": 480,
      "ption": 481,
      "ip": 482,
      "ex": 483,
      "ca": 484,
      "\\\"\"": 485,
      "ur": 486,
      "iframe": 487,
      "amp": 488,
      ";&": 489,
      "xt": 490,
      "ase": 491,
      ")%": 492,
      "ter": 493,
      "group": 494,
      "--": 495,
      "int": 496,
      "print": 497,
      "data": 498,
      "span": 499,
      "61": 500,
      "ĠS": 501,
      "ot": 502,
      "image": 503,
      "nimation": 504,
      "tanimation": 505,
      "Ġonwebkitanimation": 506,
      "80": 507,
      "ul": 508,
      "py": 509,
      "(\"\"": 510,
      "copy": 511,
      ")/>": 512,
      "cut": 513,
      ";&#": 514,
      "Ġontoggle": 515,
      "press": 516,
      "su": 517,
      "gin": 518,
      "rea": 519,
      "move": 520,
      "ink": 521,
      "bed": 522,
      "embed": 523,
      "pos": 524,
      "mar": 525,
      "html": 526,
      "Ġ%": 527,
      "au": 528,
      "docum": 529,
      "RC": 530,
      "sou": 531,
      "ref": 532,
      "()": 533,
      "ig": 534,
      "svG": 535,
      "ri": 536,
      "SC": 537,
      "PT": 538,
      "RI": 539,
      "lement": 540,
      "ideo": 541,
      "video": 542,
      "head": 543,
      "20": 544,
      "0061": 545,
      "mma": 546,
      ")><": 547,
      "om": 548,
      "SCRI": 549,
      "href": 550,
      "dio": 551,
      "11": 552,
      "audio": 553,
      "caption": 554,
      "ĠSRC": 555,
      "SCRIPT": 556,
      ")\"": 557,
      "ure": 558,
      "der": 559,
      "0000": 560,
      "tp": 561,
      "='": 562,
      "Click": 563,
      "tit": 564,
      "xx": 565,
      "as": 566,
      "Ġe": 567,
      "fig": 568,
      "ction": 569,
      ";.": 570,
      "xss": 571,
      "sol": 572,
      "tate": 573,
      "anima": 574,
      "animate": 575,
      "(%": 576,
      "element": 577,
      ");}</": 578,
      "consol": 579,
      "ec": 580,
      "IM": 581,
      "Tab": 582,
      "unt": 583,
      "ste": 584,
      "Ġondrop": 585,
      "cR": 586,
      "position": 587,
      "()></": 588,
      "=&#": 589,
      "absol": 590,
      "absolute": 591,
      "scrol": 592,
      "count": 593,
      "180": 594,
      "du": 595,
      "Ġoncopy": 596,
      "rce": 597,
      "source": 598,
      "http": 599,
      "duration": 600,
      "ll": 601,
      "Ġ2": 602,
      "run": 603,
      "title": 604,
      "âĢ": 605,
      "Ġslidein": 606,
      "Ġ{}</": 607,
      "pe": 608,
      "Ġoncut": 609,
      "scrip": 610,
      "Ġonbegin": 611,
      "IMG": 612,
      "Ġro": 613,
      "deg": 614,
      "Ġrotate": 615,
      "arget": 616,
      "Ġondragleave": 617,
      "Ġontransitionrun": 618,
      "Ġonkeypress": 619,
      "On": 620,
      "Ġ0": 621,
      "Ġhref": 622,
      "\"\">": 623,
      "rtarget": 624,
      "vertarget": 625,
      "blur": 626,
      "Ġpopover": 627,
      "Ġpopovertarget": 628,
      "ng": 629,
      "Ġonblur": 630,
      "Ġondragstart": 631,
      "Ġonpointero": 632,
      "texec": 633,
      "xtmenu": 634,
      "scriptexec": 635,
      "scriptexecute": 636,
      "Ġonconte": 637,
      "Ġonmousemove": 638,
      "Ġonkeydown": 639,
      "dbl": 640,
      "Ġondbl": 641,
      "Ġoncontextmenu": 642,
      "Ġondblclick": 643,
      "Ġondragover": 644,
      "Ġonkeyup": 645,
      "Ġonmouseout": 646,
      "Ġ1000": 647,
      "paste": 648,
      ";}}": 649,
      "Ġondragenter": 650,
      "Ġontransitioncancel": 651,
      "Ġonanimationcancel": 652,
      "Ġease": 653,
      ";}}:": 654,
      "=\\": 655,
      "ap": 656,
      "Ġred": 657,
      "Ġonmouseup": 658,
      "or": 659,
      "que": 660,
      "tarea": 661,
      "Ġonmousedown": 662,
      "://": 663,
      "textarea": 664,
      "clickme": 665,
      "Ġontransitionend": 666,
      "rCod": 667,
      "onerror": 668,
      "))>\"": 669,
      "Ġonmouseleave": 670,
      "foo": 671,
      "Ġondragend": 672,
      ")\"\">\"": 673,
      "\"\"><": 674,
      "25": 675,
      "deactivate": 676,
      "Ġonfocusout": 677,
      "cu": 678,
      "ont": 679,
      "app": 680,
      "font": 681,
      "je": 682,
      "bje": 683,
      "bject": 684,
      "scR": 685,
      "coN": 686,
      "var": 687,
      "quot": 688,
      "marque": 689,
      "marquee": 690,
      "pro": 691,
      "\"\">\"": 692,
      "sub": 693,
      "Ent": 694,
      "noscript": 695,
      "/%": 696,
      ";\"": 697,
      "time": 698,
      "ipT": 699,
      "hr": 700,
      "it": 701,
      ";(": 702,
      ";/": 703,
      ">]": 704,
      "late": 705,
      "23": 706,
      "object": 707,
      "*/": 708,
      "temp": 709,
      "template": 710,
      "onload": 711,
      "by": 712,
      "ls": 713,
      "link": 714,
      "Lo": 715,
      "let": 716,
      "ine": 717,
      "base": 718,
      "aa": 719,
      "ty": 720,
      "scRipT": 721,
      "noembed": 722,
      "Sv": 723,
      "TY": 724,
      "lE": 725,
      "fromCh": 726,
      "Pt": 727,
      "pla": 728,
      "wid": 729,
      "Svg": 730,
      "lect": 731,
      "width": 732,
      "');": 733,
      "dO": 734,
      "ocU": 735,
      "type": 736,
      "str": 737,
      "select": 738,
      "46": 739,
      "Con": 740,
      "LE": 741,
      "dom": 742,
      "ruby": 743,
      "prog": 744,
      "28": 745,
      "applet": 746,
      "progress": 747,
      ")//": 748,
      "29": 749,
      "pre": 750,
      "content": 751,
      "intext": 752,
      "plaintext": 753,
      "58": 754,
      "bdi": 755,
      "ww": 756,
      "nobr": 757,
      "eval": 758,
      "ight": 759,
      "samp": 760,
      "code": 761,
      "\"%": 762,
      "dt": 763,
      "option": 764,
      "wbr": 765,
      "list": 766,
      "af": 767,
      "is": 768,
      "100": 769,
      "\"\"\"%": 770,
      "frameset": 771,
      "Cscript": 772,
      "Use": 773,
      "fn": 774,
      "slo": 775,
      "td": 776,
      "slot": 777,
      ">//": 778,
      "moUse": 779,
      "add": 780,
      "ĠoNmoUse": 781,
      "blink": 782,
      "rror": 783,
      "sha": 784,
      "ote": 785,
      "she": 786,
      "spac": 787,
      "shadow": 788,
      "thead": 789,
      "meta": 790,
      "vas": 791,
      "hea": 792,
      "quote": 793,
      "aside": 794,
      "address": 795,
      "ting": 796,
      "blockquote": 797,
      "header": 798,
      "ram": 799,
      "comma": 800,
      "big": 801,
      "dfn": 802,
      "pi": 803,
      "sma": 804,
      "sting": 805,
      "gen": 806,
      "keygen": 807,
      "noframes": 808,
      "small": 809,
      "Mo": 810,
      "ils": 811,
      "mul": 812,
      "rb": 813,
      "ym": 814,
      "ticol": 815,
      "test": 816,
      "tails": 817,
      "details": 818,
      "cture": 819,
      "picture": 820,
      "multicol": 821,
      "acr": 822,
      "sup": 823,
      "onym": 824,
      "stri": 825,
      "meter": 826,
      "map": 827,
      "listing": 828,
      "text": 829,
      "param": 830,
      "acronym": 831,
      "strike": 832,
      "Nt": 833,
      "ic": 834,
      "nav": 835,
      "qui": 836,
      "summa": 837,
      "summary": 838,
      "xmp": 839,
      "item": 840,
      "datalist": 841,
      "command": 842,
      "=\\\"\"": 843,
      "bdo": 844,
      "tt": 845,
      "ong": 846,
      "section": 847,
      "Le": 848,
      "nex": 849,
      "canvas": 850,
      "menuitem": 851,
      "TYLE": 852,
      "strong": 853,
      "DocU": 854,
      "tfo": 855,
      "tid": 856,
      "meNt": 857,
      "roM": 858,
      "output": 859,
      "abbr": 860,
      "nextid": 861,
      "DocUmeNt": 862,
      "tfoot": 863,
      "kb": 864,
      "lege": 865,
      "ins": 866,
      "res": 867,
      "colgroup": 868,
      "legend": 869,
      "height": 870,
      "figure": 871,
      "26": 872,
      "cO": 873,
      "scroll": 874,
      "'><": 875,
      "Rom": 876,
      "dd": 877,
      "rtc": 878,
      "/*/": 879,
      "lO": 880,
      "low": 881,
      "Ġonpointerdown": 882,
      "figcaption": 883,
      "/</": 884,
      "alog": 885,
      "dl": 886,
      "dir": 887,
      "track": 888,
      "heel": 889,
      "artic": 890,
      "article": 891,
      "center": 892,
      "line": 893,
      "Ġonlo": 894,
      "dialog": 895,
      "requi": 896,
      "com": 897,
      "Ġondragex": 898,
      "Ġondragexit": 899,
      "Ġonactivate": 900,
      "del": 901,
      "Ġonwebkitanimationstart": 902,
      "mark": 903,
      "kbd": 904,
      "\"'": 905,
      "/>\"": 906,
      "HT": 907,
      "ion": 908,
      "opt": 909,
      "wheel": 910,
      "spacer": 911,
      "optgroup": 912,
      "Cu": 913,
      "en": 914,
      "hgroup": 915,
      "rder": 916,
      "date": 917,
      "Ġonpointerleave": 918,
      "border": 919,
      "requires": 920,
      "500": 921,
      "ch": 922,
      "tbody": 923,
      "Ġscroll": 924,
      "Ġonmousewheel": 925,
      "update": 926,
      "Ġonanimationend": 927,
      "Ġscrolling": 928,
      "dset": 929,
      "un": 930,
      "fiel": 931,
      "Ġonpointerup": 932,
      "url": 933,
      "fieldset": 934,
      "Ad": 935,
      "auto": 936,
      "Ġonanimationiteration": 937,
      "()\"\"></": 938,
      "wupdate": 939,
      "rawupdate": 940,
      "loAd": 941,
      "Ġonbeforescriptexecute": 942,
      "\\\\\\\\": 943,
      "Ġonwebkitanimationiteration": 944,
      "mEnt": 945,
      "Ġonpaste": 946,
      "renter": 947,
      "doCu": 948,
      "outline": 949,
      "Ġonpointerrawupdate": 950,
      "Ġonanimationstart": 951,
      "Ġonwebkitanimationend": 952,
      "doCumEnt": 953,
      "hA": 954,
      "\"\"></": 955,
      "labe": 956,
      "Ġontransitionstart": 957,
      ";\"\"><": 958,
      "Ġonpointerout": 959,
      "footer": 960,
      "label": 961,
      "';": 962,
      "cite": 963,
      "fuz": 964,
      "rp": 965,
      "zelement": 966,
      "Ġonbeforecut": 967,
      "Ġonpointerover": 968,
      "fuzzelement": 969,
      "EF": 970,
      "area": 971,
      "flow": 972,
      "ttransition": 973,
      "Ġonbeforeinput": 974,
      "Ġonbeforetoggle": 975,
      "overflow": 976,
      "Ġonwebkittransition": 977,
      "after": 978,
      "Ġonwebkittransitionend": 979,
      "Ġonafter": 980,
      "Ġonpointerenter": 981,
      "Ġonbeforecopy": 982,
      "')>": 983,
      "Ti": 984,
      "Ġda": 985,
      "lend": 986,
      "Ġonscrol": 987,
      "Ġonfocusin": 988,
      "shed": 989,
      "Ġonafterscriptexecute": 990,
      "Ġdashed": 991,
      "Ġonscrollend": 992,
      "ME": 993,
      "Ġonbeforeactivate": 994,
      "74": 995,
      "ne": 996,
      "enT": 997,
      "MenT": 998,
      "Ġonbeforepaste": 999,
      "cuMenT": 1000,
      "dOcuMenT": 1001,
      "'`": 1002,
      "TA": 1003,
      "ba": 1004,
      ")&": 1005,
      "Rm": 1006,
      "Ġonpointermove": 1007,
      "ML": 1008,
      "Ġondeactivate": 1009,
      "Ġonbeforedeactivate": 1010,
      "pression": 1011,
      "\"&": 1012,
      "Er": 1013,
      "Omp": 1014,
      "ov": 1015,
      "fiRm": 1016,
      "prOmp": 1017,
      "coNfiRm": 1018,
      "prOmpT": 1019,
      ")/%": 1020,
      "[\"\"": 1021,
      "60": 1022,
      ">\\": 1023,
      "()//": 1024,
      "Log": 1025,
      "Ġontogg": 1026,
      "ange": 1027,
      "soLe": 1028,
      "coNsoLe": 1029,
      "Ġontoggl": 1030,
      "Cus": 1031,
      "foCus": 1032,
      "CO": 1033,
      "Ġtype": 1034,
      "Ġonb": 1035,
      ">]]": 1036,
      "']": 1037,
      "=\"\"\\": 1038,
      "indow": 1039,
      "use": 1040,
      "tor": 1041,
      ");</": 1042,
      ">/": 1043,
      "')%": 1044,
      "\\\\\\": 1045,
      "org": 1046,
      "ĠoNloAd": 1047,
      "ĠoNfoCus": 1048,
      "NT": 1049,
      "alE": 1050,
      "âĢĿ": 1051,
      "alErt": 1052,
      "window": 1053,
      "STYLE": 1054,
      "stom": 1055,
      "expression": 1056,
      "custom": 1057,
      "72": 1058,
      "['": 1059,
      "cl": 1060,
      "gs": 1061,
      "\"\")\"": 1062,
      "\\\"\"&": 1063,
      "back": 1064,
      "=%": 1065,
      "Scr": 1066,
      "apos": 1067,
      "ĠonMo": 1068,
      "Ġtags": 1069,
      "')>\"": 1070,
      "')/>": 1071,
      "-->]]": 1072,
      "xxx": 1073,
      ">]</": 1074,
      "'`-->]]": 1075,
      "[\"\"'`-->]]": 1076,
      "[\"\"'`-->]]>]</": 1077,
      "09": 1078,
      "In": 1079,
      "ctor": 1080,
      "\"\";": 1081,
      "stru": 1082,
      "vent": 1083,
      "at": 1084,
      "structor": 1085,
      "!--": 1086,
      ";=": 1087,
      "Ale": 1088,
      "Irm": 1089,
      "Rt": 1090,
      "cOn": 1091,
      "fIrm": 1092,
      "AleRt": 1093,
      "cOnfIrm": 1094,
      ">/*/": 1095,
      "constructor": 1096,
      "Ġ'\"": 1097,
      "40": 1098,
      "rite": 1099,
      "write": 1100,
      "xE": 1101,
      "Ġ=": 1102,
      "motion": 1103,
      "animatetransform": 1104,
      "',": 1105,
      "Ick": 1106,
      "))/>\"": 1107,
      "ĠoNcl": 1108,
      "animatemotion": 1109,
      "unction": 1110,
      "ĠoNclIck": 1111,
      "BC": 1112,
      "XX": 1113,
      "pRom": 1114,
      "))%": 1115,
      "EntEr": 1116,
      "www": 1117,
      "ĠoNmoUseEntEr": 1118,
      "pRomPt": 1119,
      "(/": 1120,
      "123": 1121,
      "ST": 1122,
      "=\"\"\"": 1123,
      "Gg": 1124,
      "Gin": 1125,
      "Ole": 1126,
      "bg": 1127,
      ")\"\",": 1128,
      "loG": 1129,
      "erT": 1130,
      "nsOle": 1131,
      "beGin": 1132,
      "ĠoNbeGin": 1133,
      "sound": 1134,
      "cOnsOle": 1135,
      "bgsound": 1136,
      "33": 1137,
      "AD": 1138,
      "LerT": 1139,
      "Ror": 1140,
      "aLerT": 1141,
      "toGg": 1142,
      "ĠoNtoGg": 1143,
      "ĠoNtoGglE": 1144,
      "ProM": 1145,
      "rO": 1146,
      "Ġalert": 1147,
      "erRor": 1148,
      "ĠoNerRor": 1149,
      "isindex": 1150,
      "ProMpt": 1151,
      "99": 1152,
      "Ove": 1153,
      "41": 1154,
      "65": 1155,
      "Sol": 1156,
      "et": 1157,
      "}}": 1158,
      "Ġ<": 1159,
      "253": 1160,
      "ConSol": 1161,
      "ĠoNmoUseOve": 1162,
      "lOg": 1163,
      "ConSolE": 1164,
      "ĠoNmoUseOveR": 1165,
      "63": 1166,
      "=&": 1167,
      "`</": 1168,
      "00000": 1169,
      ";#": 1170,
      ";)": 1171,
      "Cimg": 1172,
      "Fi": 1173,
      "al": 1174,
      "ert": 1175,
      "))</": 1176,
      "')</": 1177,
      ">;": 1178,
      "`/*": 1179,
      "vo": 1180,
      "rM": 1181,
      ");//": 1182,
      "ConFi": 1183,
      "ConFirM": 1184,
      "ai": 1185,
      "function": 1186,
      "Ġxml": 1187,
      "void": 1188,
      "Loc": 1189,
      "ie": 1190,
      "(\"\"<": 1191,
      ">//[\"\"'`-->]]>]</": 1192,
      ")'": 1193,
      "39": 1194,
      "AME": 1195,
      "Sh": 1196,
      "ff": 1197,
      "))\"\">\"": 1198,
      "IV": 1199,
      "(&": 1200,
      "64": 1201,
      "73": 1202,
      "ChA": 1203,
      "FroM": 1204,
      "Ja": 1205,
      "Ng": 1206,
      "Vg": 1207,
      "js": 1208,
      "ok": 1209,
      "rCO": 1210,
      "xml": 1211,
      "ĠH": 1212,
      "cript": 1213,
      "riNg": 1214,
      "116": 1215,
      "change": 1216,
      "STriNg": 1217,
      "ChArCO": 1218,
      "FroMChArCO": 1219,
      "FroMChArCOde": 1220,
      "69": 1221,
      "Ain": 1222,
      "Dom": 1223,
      "Mai": 1224,
      "sVg": 1225,
      "vul": 1226,
      "rable": 1227,
      "doMai": 1228,
      "basefont": 1229,
      "HTML": 1230,
      "nerable": 1231,
      "DomAin": 1232,
      "vulnerable": 1233,
      "doMaiN": 1234,
      "De": 1235,
      "Oki": 1236,
      "ĠOn": 1237,
      "coOki": 1238,
      "000": 1239,
      "/**/": 1240,
      "coOkiE": 1241,
      "70": 1242,
      "Ati": 1243,
      "Cat": 1244,
      "FR": 1245,
      "Has": 1246,
      "Ion": 1247,
      "{{": 1248,
      "á¨": 1249,
      "loCat": 1250,
      "haSh": 1251,
      "âĢĻ": 1252,
      "LocAti": 1253,
      "FRAME": 1254,
      "HasH": 1255,
      "loCatIon": 1256,
      "LocAtiOn": 1257,
      "45": 1258,
      ":\\": 1259,
      "EC": 1260,
      "`'><": 1261,
      "ĠonLo": 1262,
      "meout": 1263,
      "\"\"\"`'><": 1264,
      "setTi": 1265,
      "caTi": 1266,
      "lOcaTi": 1267,
      "hAsh": 1268,
      "setTimeout": 1269,
      "lOcaTioN": 1270,
      "DY": 1271,
      "Ie": 1272,
      "JEC": 1273,
      "oK": 1274,
      "og": 1275,
      ")\"\")\"": 1276,
      "cOok": 1277,
      "JECT": 1278,
      "cOokIe": 1279,
      "15": 1280,
      "Re": 1281,
      "St": 1282,
      "ate": 1283,
      "maIn": 1284,
      "dOmaIn": 1285,
      "\\\\\\/": 1286,
      "=`": 1287,
      "inG": 1288,
      "CooK": 1289,
      "CooKie": 1290,
      "058": 1291,
      "CH": 1292,
      "Cha": 1293,
      "Ealert": 1294,
      "IN": 1295,
      "Ing": 1296,
      "RCo": 1297,
      "RinG": 1298,
      "arCod": 1299,
      "fRom": 1300,
      "frO": 1301,
      "ly": 1302,
      "mCH": 1303,
      "und": 1304,
      "mouse": 1305,
      "jav": 1306,
      "StrIng": 1307,
      "Ġxmlns": 1308,
      "StRinG": 1309,
      "ChaRCo": 1310,
      "arCodE": 1311,
      "fRomChaRCo": 1312,
      "frOmCH": 1313,
      "fRomChaRCoDe": 1314,
      "frOmCHarCodE": 1315,
      "Cri": 1316,
      "].": 1317,
      "Ġc": 1318,
      "ady": 1319,
      ")>\"\")\"": 1320,
      "ground": 1321,
      "aaaa": 1322,
      "background": 1323,
      "CriPt": 1324,
      "();": 1325,
      ";//": 1326,
      "ce": 1327,
      "ope": 1328,
      "Ġfoo": 1329,
      "onmouse": 1330,
      "port": 1331,
      "javas": 1332,
      "call": 1333,
      "114": 1334,
      "ĠonMouse": 1335,
      "()>": 1336,
      "DA": 1337,
      "DEF": 1338,
      "ner": 1339,
      "ript": 1340,
      ");\"\">\"": 1341,
      "))//": 1342,
      "--><": 1343,
      "+'": 1344,
      "BO": 1345,
      "Ch": 1346,
      "Ġ\"\"": 1347,
      "par": 1348,
      "ĠSTYLE": 1349,
      "ENT": 1350,
      "TP": 1351,
      "if": 1352,
      "uff": 1353,
      "Ġ\\": 1354,
      "HTTP": 1355,
      "onmouseover": 1356,
      "BODY": 1357,
      "14": 1358,
      "XML": 1359,
      "__": 1360,
      "{}": 1361,
      "¿½": 1362,
      "ï¿½": 1363,
      "=\"\";": 1364,
      "-->": 1365,
      "'>": 1366,
      "12": 1367,
      "EQ": 1368,
      "Element": 1369,
      "UIV": 1370,
      "Ġ*/": 1371,
      "ĠHTTP": 1372,
      "https": 1373,
      "EQUIV": 1374,
      "RL": 1375,
      "ScR": 1376,
      "URL": 1377,
      "Vas": 1378,
      "Ġ&#": 1379,
      "DATA": 1380,
      "ascript": 1381,
      "ĠĠ": 1382,
      "\"<;": 1383,
      "cker": 1384,
      "/*`/*": 1385,
      "this": 1386,
      "open": 1387,
      ":/*": 1388,
      ">.": 1389,
      "SRC": 1390,
      "Ġ</": 1391,
      "inner": 1392,
      "ready": 1393,
      "colon": 1394,
      ").": 1395,
      "47": 1396,
      "ABC": 1397,
      "IFRAME": 1398,
      "REF": 1399,
      "Se": 1400,
      "ib": 1401,
      "vascript": 1402,
      "âĢĺ": 1403,
      ")')": 1404,
      "/><": 1405,
      "13": 1406,
      "<!--": 1407,
      ">;\"": 1408,
      "Event": 1409,
      "Ipt": 1410,
      "Ne": 1411,
      "event": 1412,
      "wL": 1413,
      "def": 1414,
      "META": 1415,
      "new": 1416,
      "98": 1417,
      "Tim": 1418,
      "vA": 1419,
      "state": 1420,
      ");>\"": 1421,
      "ScrIpt": 1422,
      "ĠHREF": 1423,
      "NewL": 1424,
      "NewLine": 1425,
      "'%": 1426,
      "Ck": 1427,
      "uSe": 1428,
      "xhr": 1429,
      "Ġbody": 1430,
      "liCk": 1431,
      "javascr": 1432,
      "Ġat": 1433,
      ");}": 1434,
      "valid": 1435,
      "ĠonMouSe": 1436,
      "XXX": 1437,
      "callback": 1438,
      "![": 1439,
      ")`": 1440,
      ".$": 1441,
      "49": 1442,
      "<;": 1443,
      "aD": 1444,
      "op": 1445,
      "afe": 1446,
      "Mouse": 1447,
      "CONT": 1448,
      "JavA": 1449,
      "CONTENT": 1450,
      "JavAscRipT": 1451,
      ")}": 1452,
      "133": 1453,
      "By": 1454,
      "]]": 1455,
      "ame": 1456,
      "bG": 1457,
      "dC": 1458,
      "go": 1459,
      "iPt": 1460,
      "jc": 1461,
      "ze": 1462,
      "ĠonB": 1463,
      "styleshe": 1464,
      "003": 1465,
      "import": 1466,
      "ropert": 1467,
      "\\\"\";": 1468,
      "115": 1469,
      "ogle": 1470,
      "innerHTML": 1471,
      "statechange": 1472,
      "stylesheet": 1473,
      "/<": 1474,
      "62": 1475,
      "<<": 1476,
      "PE": 1477,
      "dD": 1478,
      "ï½": 1479,
      "ĠonP": 1480,
      "row": 1481,
      "resh": 1482,
      "(';": 1483,
      "null": 1484,
      ";\"\">\"": 1485,
      "refresh": 1486,
      "Change": 1487,
      "readystatechange": 1488,
      "Ġattr": 1489,
      "roperty": 1490,
      "CK": 1491,
      "Error": 1492,
      "Name": 1493,
      "Njc": 1494,
      "age": 1495,
      "play": 1496,
      "sc": 1497,
      "sCriPt": 1498,
      "Ġname": 1499,
      "))\"": 1500,
      "mlw": 1501,
      "--!": 1502,
      "âĢľ": 1503,
      "ckers": 1504,
      "ibute": 1505,
      "Njcmlw": 1506,
      "89": 1507,
      "<;/": 1508,
      ">\"\"": 1509,
      ">\"\">\"": 1510,
      "mi": 1511,
      "for": 1512,
      "ĠSrc": 1513,
      "proto": 1514,
      "TYPE": 1515,
      "');\"\">\"": 1516,
      "JECTX": 1517,
      "INJECTX": 1518,
      "1337": 1519,
      "Ġattribute": 1520,
      "NjcmlwdD": 1521,
      "'/*": 1522,
      "76": 1523,
      ";%": 1524,
      ";)>\"": 1525,
      "GE": 1526,
      "Ht": 1527,
      "OU": 1528,
      "],": 1529,
      "rE": 1530,
      "Ġurl": 1531,
      "006": 1532,
      "))/%": 1533,
      "--></": 1534,
      "ault": 1535,
      "scRipt": 1536,
      "Http": 1537,
      "(`": 1538,
      ")\\": 1539,
      "/.": 1540,
      "53": 1541,
      ";;": 1542,
      "BA": 1543,
      "CDATA": 1544,
      "ER": 1545,
      "ND": 1546,
      "Set": 1547,
      "]+": 1548,
      "ize": 1549,
      "Ġto": 1550,
      "ĠCONTENT": 1551,
      "maction": 1552,
      "105": 1553,
      "108": 1554,
      "toString": 1555,
      "throw": 1556,
      "ĠonLoad": 1557,
      "ScRiPt": 1558,
      "default": 1559,
      "google": 1560,
      "(âĢĺ": 1561,
      ")-": 1562,
      ";</": 1563,
      ";)&": 1564,
      "=âĢĿ": 1565,
      ">#": 1566,
      "FocU": 1567,
      "SE": 1568,
      "lpar": 1569,
      "vi": 1570,
      "ĠI": 1571,
      "mas": 1572,
      "\"\"\"'><": 1573,
      "top": 1574,
      "//</": 1575,
      "apply": 1576,
      "\\\\\\\\\\\\\\/": 1577,
      "ĠonLoaD": 1578,
      "MouseEvent": 1579,
      "ĠonBe": 1580,
      "OUND": 1581,
      "rEa": 1582,
      "FocUs": 1583,
      "'.": 1584,
      "+/": 1585,
      "32": 1586,
      "34": 1587,
      ";)>": 1588,
      "Te": 1589,
      "css": 1590,
      "iM": 1591,
      "vc": 1592,
      "wa": 1593,
      "Ġ(": 1594,
      "Ġ`": 1595,
      "Ġre": 1596,
      "\"\"/": 1597,
      "tarEa": 1598,
      "root": 1599,
      "getElement": 1600,
      ");&": 1601,
      "oNloAd": 1602,
      "')/%": 1603,
      "${": 1604,
      "'+'": 1605,
      "()</": 1606,
      "==": 1607,
      "??": 1608,
      "Cript": 1609,
      "Fscript": 1610,
      "Id": 1611,
      "LO": 1612,
      "XtarEa": 1613,
      "Yle": 1614,
      "\\/": 1615,
      "ho": 1616,
      "Ġ&": 1617,
      "onclick": 1618,
      "stYle": 1619,
      "teXtarEa": 1620,
      "some": 1621,
      "titLe": 1622,
      "xxxx": 1623,
      "dCg": 1624,
      "'>\"": 1625,
      ")+": 1626,
      "75": 1627,
      "85": 1628,
      ";=&#": 1629,
      "BJECT": 1630,
      "CL": 1631,
      "No": 1632,
      "OBJECT": 1633,
      "`%": 1634,
      "ld": 1635,
      "lf": 1636,
      "mit": 1637,
      "ow": 1638,
      "ph": 1639,
      "tch": 1640,
      "Ġ/": 1641,
      "Ġw": 1642,
      "Ġfor": 1643,
      "vascr": 1644,
      "sec": 1645,
      "self": 1646,
      "har": 1647,
      "/*<": 1648,
      "00000000": 1649,
      "ADw": 1650,
      "/**/(": 1651,
      "iMg": 1652,
      "')\"\">\"": 1653,
      ";$": 1654,
      "=/": 1655,
      "=[": 1656,
      "ON": 1657,
      "PH": 1658,
      "Wx": 1659,
      "csVg": 1660,
      "cliCk": 1661,
      "eR": 1662,
      "ou": 1663,
      "Ġ}": 1664,
      "Ġ/>\"": 1665,
      "\"\"/*": 1666,
      "\"\")>\"": 1667,
      "ĠonRe": 1668,
      "rch": 1669,
      "Ġxlink": 1670,
      "oNcliCk": 1671,
      "urn": 1672,
      "112": 1673,
      "='%": 1674,
      "xssme": 1675,
      "'](": 1676,
      "Script": 1677,
      "VasCript": 1678,
      "ById": 1679,
      "ĠonProperty": 1680,
      "vior": 1681,
      "getElementById": 1682,
      "ĠonPropertyChange": 1683,
      "'))": 1684,
      "..": 1685,
      "03": 1686,
      "31": 1687,
      "50": 1688,
      "67": 1689,
      "93": 1690,
      ":'": 1691,
      ";>": 1692,
      "BR": 1693,
      "Focus": 1694,
      "GR": 1695,
      "Object": 1696,
      "Vy": 1697,
      "Wri": 1698,
      "](": 1699,
      "tTim": 1700,
      "xA": 1701,
      "ãĥ": 1702,
      "Ġvar": 1703,
      "ĠBA": 1704,
      "=\"\"><": 1705,
      "roR": 1706,
      "jaVasCript": 1707,
      "//[\"\"'`-->]]>]</": 1708,
      "()}}": 1709,
      "submit": 1710,
      "space": 1711,
      "unload": 1712,
      "ĠOneR": 1713,
      "cess": 1714,
      "CKGR": 1715,
      "php": 1716,
      "WriTe": 1717,
      "ĠBACKGR": 1718,
      "ĠOneRroR": 1719,
      "ĠBACKGROUND": 1720,
      "=(": 1721,
      ">&": 1722,
      "?><": 1723,
      "Im": 1724,
      "IPT": 1725,
      "Nte": 1726,
      "State": 1727,
      "XB": 1728,
      "\\`/*": 1729,
      "ale": 1730,
      "eNte": 1731,
      "gIn": 1732,
      "the": 1733,
      "vb": 1734,
      "ya": 1735,
      "Ġ-": 1736,
      "ĠonFocUs": 1737,
      "tent": 1738,
      "lass": 1739,
      "rent": 1740,
      "\"\"\"/><": 1741,
      "beha": 1742,
      "Ġauto": 1743,
      "//\"": 1744,
      "(){": 1745,
      "substr": 1746,
      "Content": 1747,
      "ErrO": 1748,
      "/*`/*\\`/*": 1749,
      "ĠonMouSeeNte": 1750,
      "bGVy": 1751,
      "ĠattributeName": 1752,
      "ĠonBegIn": 1753,
      "wav": 1754,
      "Node": 1755,
      "PHNjcmlwdD": 1756,
      "behavior": 1757,
      "ĠonMouSeeNteR": 1758,
      "bGVydCg": 1759,
      "(\\\"\"": 1760,
      "*//": 1761,
      "+-": 1762,
      "/--!": 1763,
      "81": 1764,
      ";)/>": 1765,
      "=$": 1766,
      ">%": 1767,
      "Over": 1768,
      "``": 1769,
      "arch": 1770,
      "ccess": 1771,
      "nQ": 1772,
      "od": 1773,
      "per": 1774,
      "Ġcon": 1775,
      "Ġwidth": 1776,
      "Ġ)//": 1777,
      "ĠonErrO": 1778,
      "=\"\"&": 1779,
      "\"<?": 1780,
      ")\"\"\"": 1781,
      "math": 1782,
      "(\"\"%": 1783,
      "');\\\"\"&": 1784,
      ")//\"\">\"": 1785,
      "\\\\\\\\\\\\\\": 1786,
      ":/*-": 1787,
      "Ġformaction": 1788,
      "/**/(/*": 1789,
      "Ġ)//%": 1790,
      "ĠonErrOr": 1791,
      "\"{{": 1792,
      "&<": 1793,
      "(#": 1794,
      ")(": 1795,
      "*%": 1796,
      "/&": 1797,
      "/)": 1798,
      "16": 1799,
      "21": 1800,
      "77": 1801,
      ";'": 1802,
      "<%": 1803,
      "=<": 1804,
      "=?": 1805,
      "=//": 1806,
      "Aalert": 1807,
      "Dalert": 1808,
      "Gle": 1809,
      "Oid": 1810,
      "Safe": 1811,
      "Tog": 1812,
      "][": 1813,
      "ed": 1814,
      "hbGVydCg": 1815,
      "jp": 1816,
      "rpar": 1817,
      "size": 1818,
      "tro": 1819,
      "vOid": 1820,
      "ĠA": 1821,
      "ĠR": 1822,
      "Ġjavascript": 1823,
      "Ġdocument": 1824,
      "Ġ-->": 1825,
      "ĠTYPE": 1826,
      "onfocus": 1827,
      "ĠonError": 1828,
      "ĠonTog": 1829,
      ")\"\"><": 1830,
      "mage": 1831,
      "Ġaaaaa": 1832,
      "Cooki": 1833,
      ";\"\">": 1834,
      "';);": 1835,
      "Ġclass": 1836,
      "VasCriPt": 1837,
      "Ġcontro": 1838,
      "ĠonTogGle": 1839,
      "Cookie": 1840,
      "Ġcontrols": 1841,
      "\"`": 1842,
      "17": 1843,
      "199": 1844,
      "200": 1845,
      ";(\"\"<": 1846,
      "<</": 1847,
      "Amo": 1848,
      "DIV": 1849,
      "EL": 1850,
      "KT": 1851,
      "UT": 1852,
      "WBR": 1853,
      "asp": 1854,
      "ato": 1855,
      "bla": 1856,
      "wri": 1857,
      "|\\": 1858,
      "Ġ--": 1859,
      "Ġthis": 1860,
      "onreadystatechange": 1861,
      "\"\"%": 1862,
      "\"\")</": 1863,
      "=\"\"#": 1864,
      "loHT": 1865,
      "send": 1866,
      "SCR": 1867,
      "quest": 1868,
      ">;<;": 1869,
      ")')()}}": 1870,
      "prototype": 1871,
      "],[": 1872,
      "ĠID": 1873,
      "0000000040": 1874,
      "Ġautoplay": 1875,
      ":/*-/*`/*\\`/*": 1876,
      "';);\"\";": 1877,
      "AmoloHT": 1878,
      "atob": 1879,
      "writ": 1880,
      "()%": 1881,
      ")';": 1882,
      "84": 1883,
      ">'": 1884,
      ">--><": 1885,
      "Nya": 1886,
      "Pg": 1887,
      "Tex": 1888,
      "Un": 1889,
      "Vu": 1890,
      "Ver": 1891,
      "`//": 1892,
      "dW": 1893,
      "ere": 1894,
      "fin": 1895,
      "safe": 1896,
      "xs": 1897,
      "ĠF": 1898,
      "Ġin": 1899,
      "ĠAnonKryptiQuz": 1900,
      "Ġ/*": 1901,
      "Ġfunction": 1902,
      "=\"\"</": 1903,
      "cro": 1904,
      "1000": 1905,
      ")>%": 1906,
      "Ġalt": 1907,
      ");%": 1908,
      "parent": 1909,
      "Load": 1910,
      "0000097": 1911,
      "sche": 1912,
      "'/*\"\"": 1913,
      "jpg": 1914,
      "ĠREL": 1915,
      "1999": 1916,
      "NyaXB": 1917,
      "\"?": 1918,
      "\"</": 1919,
      "\"&#": 1920,
      "#<": 1921,
      "'-": 1922,
      "'t": 1923,
      "){": 1924,
      "2000": 1925,
      "55": 1926,
      "86": 1927,
      "91": 1928,
      ":&#": 1929,
      ";);&": 1930,
      "<!": 1931,
      "=#": 1932,
      "Ajavascript": 1933,
      "Eou": 1934,
      "FF": 1935,
      "TE": 1936,
      "`'": 1937,
      "ass": 1938,
      "cls": 1939,
      "ealert": 1940,
      "eate": 1941,
      "fa": 1942,
      "jA": 1943,
      "lc": 1944,
      "oVer": 1945,
      "png": 1946,
      "wvc": 1947,
      "Ġ>": 1948,
      "Ġ/>": 1949,
      "Ġtitle": 1950,
      "ĠON": 1951,
      "ĠContent": 1952,
      "one": 1953,
      "\"\",": 1954,
      "Ġonreadystatechange": 1955,
      "create": 1956,
      "pop": 1957,
      "soft": 1958,
      "imG": 1959,
      ")))\"": 1960,
      "box": 1961,
      "111": 1962,
      "âĢĭ": 1963,
      "252": 1964,
      "281": 1965,
      "TAB": 1966,
      ")'>": 1967,
      "âĢĻ)": 1968,
      "TimEou": 1969,
      "ĠonMouSeoVer": 1970,
      "micro": 1971,
      "GET": 1972,
      "SetTimEou": 1973,
      "*//*": 1974,
      "schemas": 1975,
      "clsid": 1976,
      "microsoft": 1977,
      "SetTimEouT": 1978,
      "((": 1979,
      "/\\": 1980,
      "/&#": 1981,
      "02": 1982,
      "04": 1983,
      "06": 1984,
      "039": 1985,
      "87": 1986,
      ":,": 1987,
      "Bo": 1988,
      "Dx": 1989,
      "Eva": 1990,
      "HE": 1991,
      "HR": 1992,
      "PA": 1993,
      "Su": 1994,
      "[/": 1995,
      "]><": 1996,
      "ast": 1997,
      "fscript": 1998,
      "fal": 1999,
      "jo": 2000,
      "ãĤ": 2001,
      "Ġ?": 2002,
      "Ġ//": 2003,
      "Ġhtml": 2004,
      "ĠDATA": 2005,
      "onse": 2006,
      "\"\"\"<": 2007,
      "\"\"//": 2008,
      "\"\"'><": 2009,
      "stat": 2010,
      "><![": 2011,
      "men": 2012,
      "match": 2013,
      "sponse": 2014,
      "response": 2015,
      "gest": 2016,
      "0065": 2017,
      ");\"": 2018,
      "'))\"\">\"": 2019,
      "()/*": 2020,
      "250": 2021,
      "25253": 2022,
      "');</": 2023,
      ")//\"": 2024,
      "()//>\\": 2025,
      ")'>\"": 2026,
      "JaV": 2027,
      "á¨Ĩ": 2028,
      "validaudio": 2029,
      "harset": 2030,
      "Img": 2031,
      "/--!>\\": 2032,
      "\"`\"\"'><": 2033,
      ":/*-/*`/*\\`/*'/*\"\"": 2034,
      "Text": 2035,
      "xsl": 2036,
      "TABLE": 2037,
      "EvaL": 2038,
      "astNode": 2039,
      "responseText": 2040,
      ":/*-/*`/*\\`/*'/*\"\"/**/(/*": 2041,
      "(&#": 2042,
      ",'": 2043,
      "110": 2044,
      "30": 2045,
      "48": 2046,
      "57": 2047,
      ";\\": 2048,
      ";)</": 2049,
      "=+": 2050,
      "==\"\"": 2051,
      ">&#": 2052,
      "ASS": 2053,
      "CliCk": 2054,
      "Fjavascript": 2055,
      "OR": 2056,
      "Page": 2057,
      "RS": 2058,
      "YWx": 2059,
      "[].": 2060,
      "autofocus": 2061,
      "bW": 2062,
      "cscript": 2063,
      "ks": 2064,
      "of": 2065,
      "ple": 2066,
      "uFF": 2067,
      "xclick": 2068,
      "ys": 2069,
      "Ġ*": 2070,
      "Ġs": 2071,
      "ĠCL": 2072,
      "ĠPage": 2073,
      "ĠonCliCk": 2074,
      "dimage": 2075,
      "tag": 2076,
      "vali": 2077,
      "106": 2078,
      "search": 2079,
      "imple": 2080,
      "Ġ'+": 2081,
      "Ġheight": 2082,
      "page": 2083,
      "auxclick": 2084,
      "().": 2085,
      "0000000": 2086,
      "}}\"": 2087,
      "ĠonMouseOver": 2088,
      ">...": 2089,
      "Ġnamespace": 2090,
      "ĠonResize": 2091,
      "';);\"\";>;\"": 2092,
      "join": 2093,
      "status": 2094,
      "JaVa": 2095,
      "ĠCLASS": 2096,
      "validimage": 2097,
      ">...<": 2098,
      "%;": 2099,
      "'+": 2100,
      "'//": 2101,
      "')\"\",": 2102,
      "')\"\")\"": 2103,
      "(\\": 2104,
      "()>\"": 2105,
      "))>\"\")\"": 2106,
      "+{": 2107,
      ",%": 2108,
      "/\"\"": 2109,
      "/\\\"\"&": 2110,
      "24": 2111,
      "36": 2112,
      "78": 2113,
      "94": 2114,
      ":;": 2115,
      ":\"\"/*": 2116,
      ">*/": 2117,
      "BE": 2118,
      "Bjavascript": 2119,
      "Here": 2120,
      "Me": 2121,
      "WSRC": 2122,
      "ZG": 2123,
      "`>": 2124,
      "alt": 2125,
      "ful": 2126,
      "ith": 2127,
      "ild": 2128,
      "sC": 2129,
      "sw": 2130,
      "vml": 2131,
      "xC": 2132,
      "yload": 2133,
      "Ġout": 2134,
      "\"\")": 2135,
      "\"\"))": 2136,
      "Ġonunload": 2137,
      "\"<!--": 2138,
      "tation": 2139,
      "user": 2140,
      "and": 2141,
      "102": 2142,
      "')&": 2143,
      "examp": 2144,
      "(\"\";": 2145,
      "(\"\"\\": 2146,
      "ign": 2147,
      "aaa": 2148,
      "âĢĿ>": 2149,
      "','": 2150,
      "Request": 2151,
      "Ġcharset": 2152,
      "XMLHttp": 2153,
      "validvideo": 2154,
      "mask": 2155,
      "Ġrel": 2156,
      "LOAD": 2157,
      "LOWSRC": 2158,
      "perl": 2159,
      "lcnQ": 2160,
      "ĠONLOAD": 2161,
      "createElement": 2162,
      "HEAD": 2163,
      "false": 2164,
      "YWxlcnQ": 2165,
      "example": 2166,
      "XMLHttpRequest": 2167,
      "!#": 2168,
      "'\\": 2169,
      "')\"\"": 2170,
      "();//": 2171,
      "(âĢľ": 2172,
      ")}}": 2173,
      "*{": 2174,
      "+(": 2175,
      "-/": 2176,
      "/?": 2177,
      "01": 2178,
      "35": 2179,
      "44": 2180,
      "66": 2181,
      "68": 2182,
      ";!--": 2183,
      "At": 2184,
      "Eprompt": 2185,
      "Enter": 2186,
      "PUT": 2187,
      "[['": 2188,
      "ade": 2189,
      "dH": 2190,
      "ev": 2191,
      "equi": 2192,
      "pha": 2193,
      "sg": 2194,
      "ument": 2195,
      "wh": 2196,
      "Ġd": 2197,
      "Ġscript": 2198,
      "Ġdata": 2199,
      "Ġhttp": 2200,
      "ĠURL": 2201,
      "Ġthe": 2202,
      "Ġimple": 2203,
      "ĠonScr": 2204,
      "=\"\"<": 2205,
      "=\"\"`": 2206,
      "\"<!": 2207,
      "digest": 2208,
      ")\"\";": 2209,
      "scri": 2210,
      "rome": 2211,
      "den": 2212,
      "\"\"\"&": 2213,
      "0080": 2214,
      "0072": 2215,
      ")>//": 2216,
      "('\\": 2217,
      "Ġsrcdoc": 2218,
      "oll": 2219,
      "thing": 2220,
      ";\"\"></": 2221,
      "118": 2222,
      "0000116": 2223,
      "0000114": 2224,
      "api": 2225,
      "://%": 2226,
      "\"\"><?": 2227,
      "2529": 2228,
      "Move": 2229,
      "'`</": 2230,
      "bar": 2231,
      "()//</": 2232,
      "0000039": 2233,
      ");//\"": 2234,
      "ĠxmlHttp": 2235,
      "json": 2236,
      "INPUT": 2237,
      ".$$": 2238,
      "????": 2239,
      "hbGVydCgx": 2240,
      "Ġclassid": 2241,
      "KTwvc": 2242,
      "mentation": 2243,
      "YWxlcnQo": 2244,
      "equiv": 2245,
      "phase": 2246,
      "Ġimplementation": 2247,
      "ĠonScroll": 2248,
      "\"#": 2249,
      "$%": 2250,
      "'}": 2251,
      "'\"\"": 2252,
      "')\"\">": 2253,
      "'/</": 2254,
      "*~": 2255,
      "+\"\"": 2256,
      ",,": 2257,
      ".,": 2258,
      "/#": 2259,
      "145": 2260,
      "42": 2261,
      "43": 2262,
      "51": 2263,
      "=>": 2264,
      "={": 2265,
      "=âĢĻ": 2266,
      ">(": 2267,
      ">>": 2268,
      ">'>": 2269,
      "?@": 2270,
      "AGE": 2271,
      "BF": 2272,
      "Djavascript": 2273,
      "Econsole": 2274,
      "FAnonKryptiQuz": 2275,
      "Fonload": 2276,
      "Ii": 2277,
      "ICK": 2278,
      "Lm": 2279,
      "LIN": 2280,
      "TD": 2281,
      "Tru": 2282,
      "URI": 2283,
      "ZS": 2284,
      "]['": 2285,
      "^`": 2286,
      "ci": 2287,
      "es": 2288,
      "nc": 2289,
      "nk": 2290,
      "pp": 2291,
      "rs": 2292,
      "site": 2293,
      "sion": 2294,
      "wn": 2295,
      "xhtml": 2296,
      "xlink": 2297,
      "};": 2298,
      "Ġst": 2299,
      "Ġlo": 2300,
      "Ġtrue": 2301,
      "Ġopen": 2302,
      "ĠLOWSRC": 2303,
      "\"\"/>\"": 2304,
      "\"\")&": 2305,
      "Ġonpage": 2306,
      "=\"\"%": 2307,
      "=\"\"[": 2308,
      "ind": 2309,
      ")\"\"/>\"": 2310,
      "comp": 2311,
      "Ġcontent": 2312,
      "0040": 2313,
      "fil": 2314,
      "hel": 2315,
      "version": 2316,
      "Ġaction": 2317,
      ");$": 2318,
      "))&": 2319,
      "show": 2320,
      "about": 2321,
      "/*%": 2322,
      "payload": 2323,
      "catch": 2324,
      "\\\"\"/*": 2325,
      "()><": 2326,
      "()+{": 2327,
      "()*~": 2328,
      "RID": 2329,
      "Ġev": 2330,
      "echo": 2331,
      "IMAGE": 2332,
      "sted": 2333,
      "orks": 2334,
      "2520": 2335,
      "append": 2336,
      "isTru": 2337,
      "resize": 2338,
      "Ġonloade": 2339,
      "')>\"\")\"": 2340,
      ")\"\",\"": 2341,
      "adyState": 2342,
      "ĠonMouseEnter": 2343,
      "ĠonMouseMove": 2344,
      "ScRipT": 2345,
      ")}//": 2346,
      "--!>": 2347,
      "mily": 2348,
      "xxxxxxxx": 2349,
      "CLICK": 2350,
      "Ġ};": 2351,
      "ĠonReadyState": 2352,
      "vbscript": 2353,
      "+-_": 2354,
      "aspx": 2355,
      "Unload": 2356,
      "family": 2357,
      "()/*\"": 2358,
      "JaVaScRiPt": 2359,
      "!#$%": 2360,
      "hbGVydCgxKTwvc": 2361,
      "LINK": 2362,
      "^`=": 2363,
      "()*~+-_": 2364,
      "isTrusted": 2365,
      "ĠonReadyStateChange": 2366,
      "$(": 2367,
      "&&": 2368,
      "')\"\"></": 2369,
      "'/*`/*": 2370,
      "(.": 2371,
      "([": 2372,
      ")`</": 2373,
      ")âĢĻ": 2374,
      "+=+": 2375,
      ",<": 2376,
      "/--><": 2377,
      "164": 2378,
      "162": 2379,
      "389": 2380,
      "54": 2381,
      ":\"\"": 2382,
      "<![": 2383,
      ">\"\"\"": 2384,
      ">/*": 2385,
      "?.": 2386,
      "AC": 2387,
      "Au": 2388,
      "Da": 2389,
      "Dprompt": 2390,
      "Donload": 2391,
      "Ejavascript": 2392,
      "Econfirm": 2393,
      "Jy": 2394,
      "Link": 2395,
      "NSRC": 2396,
      "OV": 2397,
      "Que": 2398,
      "Sta": 2399,
      "USE": 2400,
      "VA": 2401,
      "WF": 2402,
      "YX": 2403,
      "ZW": 2404,
      "ZX": 2405,
      "[<": 2406,
      "]/": 2407,
      "]^`=": 2408,
      "aalert": 2409,
      "bb": 2410,
      "bx": 2411,
      "cm": 2412,
      "char": 2413,
      "dm": 2414,
      "ess": 2415,
      "eed": 2416,
      "feed": 2417,
      "hand": 2418,
      "ish": 2419,
      "lb": 2420,
      "llow": 2421,
      "pus": 2422,
      "ub": 2423,
      "wg": 2424,
      "works": 2425,
      "ync": 2426,
      "Ġb": 2427,
      "Ġg": 2428,
      "Ġsvg": 2429,
      "Ġprompt": 2430,
      "Ġiframe": 2431,
      "Ġby": 2432,
      "Ġis": 2433,
      "Ġwindow": 2434,
      "ĠDEF": 2435,
      "ler": 2436,
      "\"\");</": 2437,
      "Ġoninput": 2438,
      "Ġonscroll": 2439,
      ")\"\");}</": 2440,
      "109": 2441,
      "\"\"\"'`": 2442,
      "0074": 2443,
      "getURL": 2444,
      ")>\"\"": 2445,
      ")>\"\"></": 2446,
      "('<": 2447,
      ");\"\">": 2448,
      "Ġonbeforeunload": 2449,
      "')}": 2450,
      "')\\\"\"&": 2451,
      "/**": 2452,
      "thod": 2453,
      "expr": 2454,
      "--%": 2455,
      "uld": 2456,
      "(\"\"&#": 2457,
      "00000040": 2458,
      "xxs": 2459,
      "2528": 2460,
      "vasc": 2461,
      "cho": 2462,
      "chrome": 2463,
      "()//>\"": 2464,
      "333": 2465,
      "0000083": 2466,
      "Java": 2467,
      "á¨Ĭ": 2468,
      "FRAMESE": 2469,
      "456": 2470,
      "DYNSRC": 2471,
      "Ref": 2472,
      "Child": 2473,
      "__']": 2474,
      "{};": 2475,
      "ĠĠĠ": 2476,
      "events": 2477,
      "define": 2478,
      "Ġattributename": 2479,
      ")-'": 2480,
      "Ġ`<": 2481,
      "ccessful": 2482,
      "/)[": 2483,
      "blank": 2484,
      "|\\]^`=": 2485,
      "finish": 2486,
      "ĠFunction": 2487,
      "TEST": 2488,
      "*//*/*/": 2489,
      "Successful": 2490,
      "[/|\\]^`=": 2491,
      "ãĤ¦": 2492,
      "ĠDATAF": 2493,
      "bWVu": 2494,
      ":;?@": 2495,
      "[['__": 2496,
      "Ġdur": 2497,
      "Ġloop": 2498,
      "appendChild": 2499,
      "CLICKME": 2500,
      "!#$%&": 2501,
      "Data": 2502,
      "USERID": 2503,
      "charAt": 2504,
      "handler": 2505,
      "push": 2506,
      "ĠDEFER": 2507,
      "FRAMESET": 2508,
      ":;?@[/|\\]^`=": 2509,
      "()\"\">": 2510,
      "(ï¿½": 2511,
      ")[": 2512,
      "))\"\",": 2513,
      "))\"\")\"": 2514,
      "));}": 2515,
      ",&#": 2516,
      ".__": 2517,
      "19": 2518,
      "37": 2519,
      "59": 2520,
      "789": 2521,
      "95": 2522,
      "96": 2523,
      ";*": 2524,
      ";+": 2525,
      ";<": 2526,
      ";'>": 2527,
      ">\"\">": 2528,
      ">\"\"><": 2529,
      ">\"\"></": 2530,
      "CA": 2531,
      "EM": 2532,
      "Fy": 2533,
      "KQ": 2534,
      "LI": 2535,
      "Li": 2536,
      "Property": 2537,
      "SPA": 2538,
      "ZE": 2539,
      "_=": 2540,
      "`)>": 2541,
      "ar": 2542,
      "ays": 2543,
      "cx": 2544,
      "che": 2545,
      "dalert": 2546,
      "gma": 2547,
      "gif": 2548,
      "il": 2549,
      "iga": 2550,
      "jdW": 2551,
      "ori": 2552,
      "pO": 2553,
      "}`": 2554,
      "Ġv": 2555,
      "Ġbe": 2556,
      "Ġlink": 2557,
      "Ġpre": 2558,
      "Ġversion": 2559,
      "ĠDYNSRC": 2560,
      "ontoggle": 2561,
      "onauxclick": 2562,
      "\"\":": 2563,
      "\"\");": 2564,
      "\"\").": 2565,
      "\"\"+\"\"": 2566,
      "tive": 2567,
      "Ġonto": 2568,
      "Ġonxxx": 2569,
      "Ġonplay": 2570,
      "Ġonfinish": 2571,
      "=\"\"--><": 2572,
      "=\"\">\"\"": 2573,
      "=\"\"/\"\"": 2574,
      "><<": 2575,
      "><?": 2576,
      "><><": 2577,
      "ding": 2578,
      "ptipt": 2579,
      "conca": 2580,
      "lang": 2581,
      "utO": 2582,
      "rect": 2583,
      "any": 2584,
      "\"\"\";": 2585,
      "fix": 2586,
      "file": 2587,
      "Ġapp": 2588,
      "('//": 2589,
      ");\"\"></": 2590,
      "namespace": 2591,
      "').": 2592,
      "abc": 2593,
      "Ġonloadstart": 2594,
      "/>//[\"\"'`-->]]>]</": 2595,
      "exp": 2596,
      "\\\"\"//</": 2597,
      "());}": 2598,
      "='><": 2599,
      "Ġecho": 2600,
      "peat": 2601,
      "OnLoad": 2602,
      "://;": 2603,
      "://'/</": 2604,
      "2522": 2605,
      "ity": 2606,
      "');\\\"\"": 2607,
      ")//></": 2608,
      ")//'>\"": 2609,
      "naviga": 2610,
      "\"';": 2611,
      "()//>*/": 2612,
      "'].": 2613,
      "']['": 2614,
      ">;<;/": 2615,
      ");//<</": 2616,
      "fff": 2617,
      "ĠOnly": 2618,
      "ĠOnError": 2619,
      "ĠOnLoad": 2620,
      "))//\"\";": 2621,
      "<!--><": 2622,
      "ERE": 2623,
      "host": 2624,
      "Ġ/></": 2625,
      "nQu": 2626,
      "2001": 2627,
      ":,*%": 2628,
      "\"\"))'>\"": 2629,
      "white": 2630,
      "scriptipt": 2631,
      ".,:;?@[/|\\]^`=": 2632,
      "hello": 2633,
      "()*~+-_.,:;?@[/|\\]^`=": 2634,
      "Audi": 2635,
      "WFNT": 2636,
      "ession": 2637,
      "lbnQu": 2638,
      "JavaScript": 2639,
      "SPAN": 2640,
      "gmail": 2641,
      "Ġprefix": 2642,
      "Ġontou": 2643,
      "concat": 2644,
      "Ġapplet": 2645,
      "\"âĢĿ": 2646,
      "\"\\\"\";": 2647,
      "%\"\"": 2648,
      "($": 2649,
      "())": 2650,
      ")&#": 2651,
      "))>": 2652,
      ")<;/": 2653,
      "*?": 2654,
      ",[": 2655,
      ",\\": 2656,
      "/)>": 2657,
      "/+/": 2658,
      "07": 2659,
      "146": 2660,
      "141": 2661,
      "52": 2662,
      ":(": 2663,
      ";;&": 2664,
      ";\\\"\"&": 2665,
      "=='": 2666,
      "=/*<": 2667,
      ">`": 2668,
      ">');": 2669,
      "As": 2670,
      "Cjavascript": 2671,
      "EV": 2672,
      "Ex": 2673,
      "IH": 2674,
      "LA": 2675,
      "MOV": 2676,
      "OC": 2677,
      "Ope": 2678,
      "Ocu": 2679,
      "PS": 2680,
      "Po": 2681,
      "TI": 2682,
      "Top": 2683,
      "Tof": 2684,
      "UL": 2685,
      "[*/": 2686,
      "[]/": 2687,
      "\\%": 2688,
      "\\></": 2689,
      "]>": 2690,
      "]=[": 2691,
      "aW": 2692,
      "ae": 2693,
      "bs": 2694,
      "bind": 2695,
      "df": 2696,
      "fda": 2697,
      "hid": 2698,
      "lur": 2699,
      "ost": 2700,
      "pZ": 2701,
      "ser": 2702,
      "turn": 2703,
      "uage": 2704,
      "uTof": 2705,
      "zz": 2706,
      "Ġ@": 2707,
      "Ġy": 2708,
      "Ġframe": 2709,
      "ĠXSS": 2710,
      "Ġit": 2711,
      "ĠLoc": 2712,
      "ĠCDATA": 2713,
      "Ġsome": 2714,
      "ĠCookie": 2715,
      "Ġfalse": 2716,
      "ĠXMLHttpRequest": 2717,
      "Ġ--!>": 2718,
      "Ġlang": 2719,
      "ħï½": 2720,
      "ĵï½": 2721,
      "onpointe": 2722,
      "\"\"?><": 2723,
      "\"\"/>//[\"\"'`-->]]>]</": 2724,
      "Ġonform": 2725,
      "ĠonFocus": 2726,
      "=\"\"\"\"": 2727,
      "=\"\"]><": 2728,
      "\"<![": 2729,
      "invalid": 2730,
      "scrscriptipt": 2731,
      "rous": 2732,
      "roke": 2733,
      "local": 2734,
      "scriptlet": 2735,
      "utf": 2736,
      "ance": 2737,
      "lic": 2738,
      "lity": 2739,
      "\"\"\"></": 2740,
      "fill": 2741,
      "Ġascript": 2742,
      "Ġallow": 2743,
      "ĠauTof": 2744,
      ");>.": 2745,
      "nake": 2746,
      "foreign": 2747,
      "foreUnload": 2748,
      "Ġonbeforeload": 2749,
      "')\"": 2750,
      "')\\\"\"": 2751,
      "/*&": 2752,
      "/*-": 2753,
      "gger": 2754,
      "Ġ'=\"\"": 2755,
      "cape": 2756,
      "urity": 2757,
      "(){};": 2758,
      "0000106": 2759,
      "orClick": 2760,
      "orld": 2761,
      "2823": 2762,
      ")//#": 2763,
      ")//\"\">": 2764,
      "codeURI": 2765,
      "Leave": 2766,
      "\"'\"\"": 2767,
      "744": 2768,
      "()//\"": 2769,
      "()//<": 2770,
      "'];": 2771,
      "']=": 2772,
      "âĢĿ)>": 2773,
      "!--\"": 2774,
      "Ġ==": 2775,
      "xmlHttp": 2776,
      "ĠHERE": 2777,
      "ĠHost": 2778,
      "\\\\\\/<": 2779,
      "aaaaa": 2780,
      "opera": 2781,
      "ĠonMouseLeave": 2782,
      "))//\\": 2783,
      "{}[['__": 2784,
      "readyState": 2785,
      "ĠonBlur": 2786,
      "ï½ħï½": 2787,
      "ĠonPage": 2788,
      "\\\\\\\\\\\\\\/<": 2789,
      "ĠonBeforeUnload": 2790,
      "\"\"/></": 2791,
      "security": 2792,
      "=[].": 2793,
      "ĠAutO": 2794,
      "UTF": 2795,
      "|\\><": 2796,
      "Ġ--\\": 2797,
      "find": 2798,
      "Ġ/*</": 2799,
      "<!>": 2800,
      "onent": 2801,
      "Box": 2802,
      "RSnake": 2803,
      "Ġsays": 2804,
      "sCr": 2805,
      "swf": 2806,
      "\"<!--<": 2807,
      "escape": 2808,
      "Ġstroke": 2809,
      "compass": 2810,
      "filter": 2811,
      "Ġonloadend": 2812,
      "worksin": 2813,
      "__']]['": 2814,
      "origin": 2815,
      "EVENT": 2816,
      "MOVE": 2817,
      "OcuS": 2818,
      "[*/[]/": 2819,
      "\\></|\\><": 2820,
      "fdae": 2821,
      "hidden": 2822,
      "Ġframeborder": 2823,
      "ĠLocation": 2824,
      "ĠCookies": 2825,
      "Ġlanguage": 2826,
      "\"<![><": 2827,
      "ĠauTofOcuS": 2828,
      "foreignObject": 2829,
      "securitycompass": 2830,
      "ĠAutOfoCus": 2831,
      "[*/[]/+": 2832,
      "\"\\\"\"": 2833,
      "'\"\"><": 2834,
      "')\"\"\"": 2835,
      "()\"\">\"": 2836,
      ")}</": 2837,
      ")');": 2838,
      ")['": 2839,
      "+\"": 2840,
      "-\"": 2841,
      "/></": 2842,
      "/)></": 2843,
      "08": 2844,
      "400": 2845,
      "420": 2846,
      "439": 2847,
      "56": 2848,
      "79": 2849,
      "82": 2850,
      "90": 2851,
      ";-": 2852,
      ";{": 2853,
      ";\\\"\"": 2854,
      ";\\\"\";": 2855,
      "<--": 2856,
      "<\\/": 2857,
      "=!": 2858,
      ">$": 2859,
      ">+": 2860,
      ">=": 2861,
      ">><": 2862,
      ">\\\\": 2863,
      ">/*<": 2864,
      "BG": 2865,
      "Bfn": 2866,
      "Cs": 2867,
      "Cinput": 2868,
      "Editable": 2869,
      "Falert": 2870,
      "Function": 2871,
      "IG": 2872,
      "IZE": 2873,
      "JA": 2874,
      "MS": 2875,
      "NAME": 2876,
      "SOUND": 2877,
      "Uto": 2878,
      "Window": 2879,
      "\\/*": 2880,
      "\\âĢĿ": 2881,
      "\\/<": 2882,
      "];": 2883,
      "`\"": 2884,
      "`<": 2885,
      "`\"\"><": 2886,
      "`${": 2887,
      "am": 2888,
      "aja": 2889,
      "all": 2890,
      "baa": 2891,
      "ctive": 2892,
      "dG": 2893,
      "efirm": 2894,
      "fc": 2895,
      "gument": 2896,
      "hide": 2897,
      "ile": 2898,
      "ility": 2899,
      "jscript": 2900,
      "lu": 2901,
      "mL": 2902,
      "msg": 2903,
      "vis": 2904,
      "wM": 2905,
      "with": 2906,
      "xB": 2907,
      "xy": 2908,
      "xEF": 2909,
      "{\"\"": 2910,
      "|\\\\": 2911,
      "åĺ": 2912,
      "ðŁ": 2913,
      "Ġ+": 2914,
      "Ġ6": 2915,
      "ĠT": 2916,
      "Ġn": 2917,
      "Ġp": 2918,
      "Ġ></": 2919,
      "Ġns": 2920,
      "Ġ101": 2921,
      "Ġclick": 2922,
      "Ġfrom": 2923,
      "Ġexpression": 2924,
      "Ġbackground": 2925,
      "Ġif": 2926,
      "Ġmask": 2927,
      "Ġpayload": 2928,
      "Ġfill": 2929,
      "ĠNAME": 2930,
      "onx": 2931,
      "onxxx": 2932,
      "\"\"]": 2933,
      "\"\";\"": 2934,
      "Ġonse": 2935,
      "Ġonauxclick": 2936,
      "stance": 2937,
      "=\"\"]": 2938,
      "direct": 2939,
      "none": 2940,
      "tacker": 2941,
      "desc": 2942,
      "decodeURI": 2943,
      "repla": 2944,
      "loaD": 2945,
      "like": 2946,
      "post": 2947,
      "\"\"\"+": 2948,
      "002": 2949,
      "0029": 2950,
      "0070": 2951,
      "Ġtarget": 2952,
      "rcle": 2953,
      "ĠaUto": 2954,
      "///": 2955,
      "Ġxss": 2956,
      ");\"\"": 2957,
      ");></": 2958,
      ");[].": 2959,
      "imgur": 2960,
      "))}": 2961,
      "Comp": 2962,
      "htc": 2963,
      "Ġsrcset": 2964,
      "Ġ116": 2965,
      "'))>": 2966,
      "noxss": 2967,
      "pass": 2968,
      ";\"\";": 2969,
      "exec": 2970,
      "carous": 2971,
      "\\\"\"/*`/*": 2972,
      "-->\"": 2973,
      "ĠSIZE": 2974,
      "sult": 2975,
      "0000101": 2976,
      "000009": 2977,
      "0000115": 2978,
      "0000105": 2979,
      "0000108": 2980,
      "0000112": 2981,
      "0000118": 2982,
      "='/*": 2983,
      "=''.": 2984,
      "='+/": 2985,
      "OnAnonKryptiQuz": 2986,
      "\"\">><": 2987,
      "230000000040": 2988,
      "');>\"": 2989,
      "');>.": 2990,
      "comment": 2991,
      "\"'\"\"><": 2992,
      "\"'`\"\"><": 2993,
      "\"'\"\">><": 2994,
      "unescape": 2995,
      "\\\\\\\\\\\\\\\\": 2996,
      "net": 2997,
      "601": 2998,
      ">]]></": 2999,
      "']%": 3000,
      "\\\\\\/*": 3001,
      ">/*/&#": 3002,
      "1234": 3003,
      "}});": 3004,
      "0000088": 3005,
      "0000058": 3006,
      "0000040": 3007,
      "0000041": 3008,
      ";)}": 3009,
      "xmlns": 3010,
      "0003": 3011,
      "{{'": 3012,
      "{{_": 3013,
      "á¨Ĥ": 3014,
      "á¨İ": 3015,
      "á¨ı": 3016,
      "150": 3017,
      "154": 3018,
      "))//--": 3019,
      "147": 3020,
      "Ġ*/</": 3021,
      "innerhtml": 3022,
      "ibility": 3023,
      "<!--[": 3024,
      ")`>\"": 3025,
      ")`()": 3026,
      "<<<<": 3027,
      "âĢľ><": 3028,
      "BASE": 3029,
      "\"\"/+/": 3030,
      "Ġwith": 3031,
      "\\\\\\\\\\\\\\/*": 3032,
      "KTt": 3033,
      "\"\",\"": 3034,
      "\"\",\"\"": 3035,
      "==\"\"></": 3036,
      "Ġ*\\": 3037,
      "000000028": 3038,
      "'//\"\"//": 3039,
      "Method": 3040,
      "=\"\"`><": 3041,
      "jsonp": 3042,
      "Iik": 3043,
      "circle": 3044,
      "Ġonpagehide": 3045,
      "=\"\"%(": 3046,
      "([^": 3047,
      "ACI": 3048,
      "Jyk": 3049,
      "Start": 3050,
      "ZXJ": 3051,
      "\"\"\"'`><": 3052,
      "bWVudC": 3053,
      ">\"\">'><": 3054,
      "\"âĢĿ&": 3055,
      "LAY": 3056,
      "Opera": 3057,
      "\\\\\\/<\\\\\\/": 3058,
      "\\\\\\\\\\\\\\/<\\\\\\\\\\\\\\/": 3059,
      "BGSOUND": 3060,
      "ajax": 3061,
      "msgbox": 3062,
      "visibility": 3063,
      "replace": 3064,
      "ĠaUtoFocUs": 3065,
      "Component": 3066,
      "carousel": 3067,
      "0000099": 3068,
      "\"'`\"\"><\\": 3069,
      "\"(": 3070,
      "\"/": 3071,
      "#%": 3072,
      "&;#": 3073,
      "&_=": 3074,
      "'/": 3075,
      "'></": 3076,
      "'\"\">": 3077,
      "';\"\">": 3078,
      "'([^": 3079,
      "({": 3080,
      "(\\\\": 3081,
      "();</": 3082,
      "())//": 3083,
      ")*": 3084,
      ")/": 3085,
      ")<": 3086,
      ")ï¿½": 3087,
      "));>\"": 3088,
      "))\"\";": 3089,
      ")/)[": 3090,
      "*/>": 3091,
      "++": 3092,
      "+[": 3093,
      "+`": 3094,
      ",$": 3095,
      "-%": 3096,
      "/')>": 3097,
      "18": 3098,
      "125": 3099,
      "280": 3100,
      "315": 3101,
      ":%": 3102,
      ":&": 3103,
      ":-": 3104,
      ":[].": 3105,
      ";[": 3106,
      ";)%": 3107,
      ";)\"\",": 3108,
      "<?": 3109,
      "=_": 3110,
      "=()": 3111,
      ">?": 3112,
      ">*{": 3113,
      "AM": 3114,
      "An": 3115,
      "Ascript": 3116,
      "Aonerror": 3117,
      "ATA": 3118,
      "Aexpression": 3119,
      "Be": 3120,
      "BCscript": 3121,
      "BEalert": 3122,
      "CB": 3123,
      "Dow": 3124,
      "DOC": 3125,
      "HN": 3126,
      "HQ": 3127,
      "ID": 3128,
      "IS": 3129,
      "Ig": 3130,
      "LD": 3131,
      "LU": 3132,
      "Ly": 3133,
      "LCA": 3134,
      "MATA": 3135,
      "RAM": 3136,
      "Ta": 3137,
      "To": 3138,
      "Ty": 3139,
      "TLE": 3140,
      "VG": 3141,
      "XS": 3142,
      "XObject": 3143,
      "YW": 3144,
      "Zn": 3145,
      "Zy": 3146,
      "Zml": 3147,
      "[%": 3148,
      "[[": 3149,
      "\\*": 3150,
      "\\>": 3151,
      "\\`": 3152,
      "\\\"\"\"": 3153,
      "\\``": 3154,
      "]\"": 3155,
      "])": 3156,
      "]{": 3157,
      "]\"\"": 3158,
      "])</": 3159,
      "`)&": 3160,
      "`);\"\">\"": 3161,
      "`+`": 3162,
      "aol": 3163,
      "bab": 3164,
      "cG": 3165,
      "cy": 3166,
      "cz": 3167,
      "cse": 3168,
      "cha": 3169,
      "cimg": 3170,
      "cur": 3171,
      "ee": 3172,
      "ent": 3173,
      "fun": 3174,
      "gra": 3175,
      "glo": 3176,
      "hZ": 3177,
      "io": 3178,
      "jQue": 3179,
      "mV": 3180,
      "mpt": 3181,
      "mno": 3182,
      "ngt": 3183,
      "nxss": 3184,
      "ort": 3185,
      "ould": 3186,
      "rd": 3187,
      "ug": 3188,
      "vs": 3189,
      "vie": 3190,
      "xBF": 3191,
      "yout": 3192,
      "you": 3193,
      "}%": 3194,
      "}=": 3195,
      "~~": 3196,
      "Â¼": 3197,
      "Â¾": 3198,
      "Ġ3": 3199,
      "Ġ5": 3200,
      "Ġ^": 3201,
      "Ġr": 3202,
      "Ġt": 3203,
      "Ġ|": 3204,
      "Ġ>\"": 3205,
      "Ġ><": 3206,
      "Ġco": 3207,
      "Ġcan": 3208,
      "Ġ\\\"\"": 3209,
      "Ġcode": 3210,
      "Ġtext": 3211,
      "Ġuse": 3212,
      "Ġ\\\"\"&": 3213,
      "Ġnew": 3214,
      "ĠVA": 3215,
      "Ġany": 3216,
      "Ġlike": 3217,
      "lengt": 3218,
      "\"\".": 3219,
      "\"\"\"\"><": 3220,
      "Ġonc": 3221,
      "Ġonre": 3222,
      "Ġoncan": 3223,
      "Ġonhash": 3224,
      "Ġonchange": 3225,
      "Ġonly": 3226,
      "=\"\"(": 3227,
      "=\"\"+": 3228,
      "rans": 3229,
      "ocument": 3230,
      ")\"\"+\"": 3231,
      "scriptu": 3232,
      "labs": 3233,
      "brute": 3234,
      "request": 3235,
      "redirect": 3236,
      "103": 3237,
      "107": 3238,
      "modi": 3239,
      "erro": 3240,
      "ked": 3241,
      ")\"\">//[\"\"'`-->]]>]</": 3242,
      "fir": 3243,
      "here": 3244,
      "hacker": 3245,
      ")>;": 3246,
      "utoFocus": 3247,
      "('%": 3248,
      "//&": 3249,
      "//.": 3250,
      ");'": 3251,
      "ssage": 3252,
      "))(": 3253,
      "pointer": 3254,
      "Count": 3255,
      "htm": 3256,
      "dropbox": 3257,
      "Ġ110": 3258,
      "Ġ111": 3259,
      "'));": 3260,
      "action": 3261,
      "Ġ';": 3262,
      "Ġ'\\": 3263,
      "Ġ'(.": 3264,
      "\\\\\"\")&": 3265,
      "path": 3266,
      "Ġ109": 3267,
      "\\\"\"//": 3268,
      "(\"\"*//*": 3269,
      "()`": 3270,
      "SCript": 3271,
      "117": 3272,
      "00003": 3273,
      "='&": 3274,
      "='+": 3275,
      "='?><": 3276,
      "async": 3277,
      "Ġen": 3278,
      "Ġevent": 3279,
      "OnFocus": 3280,
      "apis": 3281,
      "\"\"><!--": 3282,
      "257": 3283,
      "applic": 3284,
      "timer": 3285,
      "its": 3286,
      "objectBo": 3287,
      "*/</": 3288,
      "');&": 3289,
      "');\"\"": 3290,
      "460": 3291,
      ")//\"\",\"": 3292,
      "evalAs": 3293,
      ">//\\": 3294,
      ">//&#": 3295,
      "=\\\"\"&": 3296,
      "=\\\"\"/": 3297,
      "unding": 3298,
      "';))\"\";": 3299,
      "ovL": 3300,
      "'])": 3301,
      "\\\\\\'": 3302,
      "Scri": 3303,
      "404": 3304,
      "(/'([^": 3305,
      "etter": 3306,
      "alwa": 3307,
      ");//\"\">\"": 3308,
      ")'/)[": 3309,
      "000146": 3310,
      "7055": 3311,
      "á¨ĥ": 3312,
      "á¨ħ": 3313,
      "á¨ĩ": 3314,
      "á¨ĭ": 3315,
      "153": 3316,
      "157": 3317,
      "javAscript": 3318,
      "aaaaaaaa": 3319,
      "))//';": 3320,
      "))//ï¿½": 3321,
      "))//\\\"\";": 3322,
      "{}*{": 3323,
      "-->&": 3324,
      "121": 3325,
      "ScRipt": 3326,
      ":/*--></": 3327,
      ":/*\"\"/*": 3328,
      ")')()": 3329,
      ");}&": 3330,
      ")}//\"": 3331,
      "]]\"\"><": 3332,
      ">\"\"/</": 3333,
      ")-\"\"\"": 3334,
      "ĠIE": 3335,
      "ĠImage": 3336,
      "\\\\\\\\\\\\\\/\\\\\\\\\\\\\\": 3337,
      "Ġrepeat": 3338,
      ")+{": 3339,
      "Ġworld": 3340,
      "Ġwould": 3341,
      "ãĥį": 3342,
      "ãĥĽ": 3343,
      "Imh": 3344,
      "=\"\"&{": 3345,
      "hbGVydCgi": 3346,
      ")')()}}\"": 3347,
      ")';</": 3348,
      ">'\"\"><": 3349,
      "Units": 3350,
      "`//\\\"\"//</": 3351,
      "Ġ/*%": 3352,
      "<!<": 3353,
      "assign": 3354,
      "âĢĭ=": 3355,
      "PARAM": 3356,
      "Ġ?>\"": 3357,
      "ĠDATASRC": 3358,
      "ORMATA": 3359,
      "statusline": 3360,
      "ĠCLASSID": 3361,
      "BED": 3362,
      "sCR": 3363,
      "=\"\"`${": 3364,
      "????????": 3365,
      "\"#\"\"><": 3366,
      ">({": 3367,
      ">'>\"\">\"": 3368,
      "ZSwg": 3369,
      "Ġonpageshow": 3370,
      "=\"\"[[[": 3371,
      "Ġactiontype": 3372,
      "xxxxxxxxxxxxxxxx": 3373,
      ")âĢĻ);</": 3374,
      "Queue": 3375,
      "Reflect": 3376,
      "defineProperty": 3377,
      "ĠDATAFLD": 3378,
      "ĠDATAFORMATA": 3379,
      "DataURL": 3380,
      "EMBED": 3381,
      "argument": 3382,
      "check": 3383,
      "());};": 3384,
      "navigator": 3385,
      "hellox": 3386,
      "WFNTJyk": 3387,
      "Ġontouch": 3388,
      "*?)'/)[": 3389,
      "/+/[*/[]/+": 3390,
      "TITLE": 3391,
      "onpointerenter": 3392,
      "localhost": 3393,
      ")//\"\">//[\"\"'`-->]]>]</": 3394,
      "operator": 3395,
      "))//\\';": 3396,
      "worksinchrome": 3397,
      ";\\\"\";'": 3398,
      "<--`<": 3399,
      "\\/<\\/": 3400,
      "ctiveXObject": 3401,
      "Ġonsee": 3402,
      "stanceof": 3403,
      "\\\"\"/*`/*'": 3404,
      "='+/\"\"/+/": 3405,
      "LAYER": 3406,
      "(\\\\\"\"": 3407,
      "DOCTYPE": 3408,
      "LUE": 3409,
      "current": 3410,
      "globa": 3411,
      "jQuery": 3412,
      "Ġcould": 3413,
      "ĠVALUE": 3414,
      "length": 3415,
      "Ġoncanplay": 3416,
      "Ġonhashchange": 3417,
      "Ġ'(.*?)'/)[": 3418,
      "(\"\"*//*\"\");": 3419,
      "asyncQueue": 3420,
      "application": 3421,
      "objectBounding": 3422,
      "evalAsync": 3423,
      "';))\"\";>;\"": 3424,
      "(/'([^']%": 3425,
      "always": 3426,
      "{}*{-": 3427,
      "ĠrepeatCount": 3428,
      "Ġworldss": 3429,
      "ĠDATAFORMATAS": 3430,
      "objectBoundingBox": 3431,
      "!!": 3432,
      "\"><": 3433,
      "\"[\"\"": 3434,
      "##": 3435,
      "#(": 3436,
      "#\\": 3437,
      "#/#": 3438,
      "&%": 3439,
      "'</": 3440,
      "'))>\"": 3441,
      "'(.": 3442,
      "(!": 3443,
      "(['": 3444,
      "),": 3445,
      ")?": 3446,
      ")|": 3447,
      "));\"\">\"": 3448,
      ")-->": 3449,
      ")<%": 3450,
      "));\"": 3451,
      ")/*%": 3452,
      "+%": 3453,
      "-+-": 3454,
      ".<": 3455,
      "._": 3456,
      "/\"": 3457,
      "/-": 3458,
      "/)</": 3459,
      "/\"\"></": 3460,
      "/',": 3461,
      "/\\/": 3462,
      "/)//\"\">\"": 3463,
      "05": 3464,
      "0180": 3465,
      "075": 3466,
      "122": 3467,
      "127": 3468,
      "120": 3469,
      "128": 3470,
      "163": 3471,
      "38": 3472,
      "428": 3473,
      "458": 3474,
      "4000": 3475,
      "527": 3476,
      "580": 3477,
      "820": 3478,
      "927": 3479,
      ":#": 3480,
      ":{": 3481,
      ";,": 3482,
      ";?": 3483,
      ";@": 3484,
      ";>\"": 3485,
      ";><": 3486,
      ";></": 3487,
      ";))": 3488,
      ";\\\\": 3489,
      ";/**/(/*": 3490,
      ";))&": 3491,
      ";()*~+-_.,:;?@[/|\\]^`=": 3492,
      ";/*&": 3493,
      "<âĢĭ": 3494,
      "=.": 3495,
      "=;": 3496,
      "=@": 3497,
      "=ï¿½": 3498,
      "=')}": 3499,
      ">-": 3500,
      ">{": 3501,
      ">)\"": 3502,
      ">ï¿½": 3503,
      ">+-": 3504,
      ">;\"\";": 3505,
      "?&": 3506,
      "?>\"": 3507,
      "AB": 3508,
      "Asrc": 3509,
      "Adata": 3510,
      "Atype": 3511,
      "ASet": 3512,
      "BY": 3513,
      "Bexpression": 3514,
      "Bfff": 3515,
      "Cbody": 3516,
      "CSvg": 3517,
      "Ctype": 3518,
      "Cxsl": 3519,
      "Di": 3520,
      "Dconfirm": 3521,
      "Donerror": 3522,
      "Document": 3523,
      "DovL": 3524,
      "EB": 3525,
      "ED": 3526,
      "Etype": 3527,
      "Fstyle": 3528,
      "Frame": 3529,
      "Ftype": 3530,
      "Fdm": 3531,
      "ForClick": 3532,
      "Go": 3533,
      "Getter": 3534,
      "Hh": 3535,
      "Hel": 3536,
      "Hide": 3537,
      "IE": 3538,
      "Ij": 3539,
      "Ip": 3540,
      "IPt": 3541,
      "IHR": 3542,
      "Iden": 3543,
      "JS": 3544,
      "Jl": 3545,
      "KC": 3546,
      "Kno": 3547,
      "Mz": 3548,
      "Nvb": 3549,
      "OM": 3550,
      "Of": 3551,
      "Oi": 3552,
      "Own": 3553,
      "Pa": 3554,
      "Pro": 3555,
      "Rl": 3556,
      "RWx": 3557,
      "TT": 3558,
      "TW": 3559,
      "Tk": 3560,
      "The": 3561,
      "Trans": 3562,
      "Up": 3563,
      "Una": 3564,
      "Vt": 3565,
      "Val": 3566,
      "VFdm": 3567,
      "Wheel": 3568,
      "XY": 3569,
      "Xxx": 3570,
      "YST": 3571,
      "You": 3572,
      "[\\": 3573,
      "[`": 3574,
      "[</": 3575,
      "\\&": 3576,
      "\\<": 3577,
      "\\>\"": 3578,
      "]&": 3579,
      "`,": 3580,
      "`]": 3581,
      "`}": 3582,
      "`>\"": 3583,
      "`)>\"": 3584,
      "`//\"": 3585,
      "aX": 3586,
      "acon": 3587,
      "ali": 3588,
      "avascript": 3589,
      "ami": 3590,
      "balert": 3591,
      "ber": 3592,
      "bWx": 3593,
      "cv": 3594,
      "csp": 3595,
      "cert": 3596,
      "cHTML": 3597,
      "cDovL": 3598,
      "dk": 3599,
      "dx": 3600,
      "dprompt": 3601,
      "eg": 3602,
      "ey": 3603,
      "gi": 3604,
      "gu": 3605,
      "glow": 3606,
      "gName": 3607,
      "ggest": 3608,
      "hs": 3609,
      "hic": 3610,
      "iti": 3611,
      "iIH": 3612,
      "igger": 3613,
      "kK": 3614,
      "lder": 3615,
      "lbWVu": 3616,
      "mF": 3617,
      "mhtml": 3618,
      "mdW": 3619,
      "nL": 3620,
      "nS": 3621,
      "ny": 3622,
      "nWFNTJyk": 3623,
      "oo": 3624,
      "ous": 3625,
      "our": 3626,
      "pb": 3627,
      "pwn": 3628,
      "roc": 3629,
      "right": 3630,
      "sr": 3631,
      "sx": 3632,
      "sBy": 3633,
      "uZ": 3634,
      "ux": 3635,
      "ube": 3636,
      "uccess": 3637,
      "ucz": 3638,
      "vh": 3639,
      "vdW": 3640,
      "who": 3641,
      "wind": 3642,
      "xF": 3643,
      "xM": 3644,
      "xd": 3645,
      "xpression": 3646,
      "xvdW": 3647,
      "yy": 3648,
      "zLm": 3649,
      "}\"": 3650,
      "}${": 3651,
      "}`%": 3652,
      "}={": 3653,
      "ï¼": 3654,
      "Ġ,": 3655,
      "Ġ=\"\"": 3656,
      "Ġfo": 3657,
      "Ġdo": 3658,
      "Ġkey": 3659,
      "Ġform": 3660,
      "Ġdy": 3661,
      "Ġmarquee": 3662,
      "Ġobject": 3663,
      "Ġbase": 3664,
      "Ġstr": 3665,
      "Ġframeset": 3666,
      "Ġrequi": 3667,
      "Ġ['": 3668,
      "Ġ40": 3669,
      "Ġ41": 3670,
      "Ġ>;": 3671,
      "Ġ/**/": 3672,
      "ĠâĢĺ": 3673,
      "Ġdefault": 3674,
      "Ġresize": 3675,
      "ĠEVENT": 3676,
      "ĠJA": 3677,
      "īï½": 3678,
      "ıï½": 3679,
      "Ĳï½": 3680,
      "Ĵï½ħï½": 3681,
      "ĺï½": 3682,
      "oninput": 3683,
      "onstart": 3684,
      "onRe": 3685,
      "onerro": 3686,
      "lem": 3687,
      "lete": 3688,
      "\"\"\"\"": 3689,
      "\"\"))>\"": 3690,
      "\"\"](": 3691,
      "\"\")'>\"": 3692,
      "tifi": 3693,
      "ticHTML": 3694,
      "Ġonend": 3695,
      "Ġonstart": 3696,
      "Ġontime": 3697,
      "Ġonsubmit": 3698,
      "Ġonfil": 3699,
      "Ġonshow": 3700,
      "Ġonresize": 3701,
      "ĠonUnload": 3702,
      "Ġoninvalid": 3703,
      "ĠonStart": 3704,
      "strea": 3705,
      "=\"\"'": 3706,
      "=\"\"-": 3707,
      "=\"\"/": 3708,
      "=\"\"{": 3709,
      "=\"\"&#": 3710,
      "terch": 3711,
      "><!--": 3712,
      "><\\\\\\/": 3713,
      "><\\\\\\\\\\\\\\/": 3714,
      "\"<%": 3715,
      "ryEx": 3716,
      "tarun": 3717,
      ")\"\"/": 3718,
      ")\"\"&#": 3719,
      ")\"\")}</": 3720,
      "message": 3721,
      "scriptor": 3722,
      "mali": 3723,
      "return": 3724,
      "result": 3725,
      "></><": 3726,
      "lose": 3727,
      "coo": 3728,
      "104": 3729,
      "imap": 3730,
      "uechange": 3731,
      "nsrc": 3732,
      "\"\"\"}": 3733,
      "ken": 3734,
      "001": 3735,
      "0063": 3736,
      "0073": 3737,
      "0069": 3738,
      "0076": 3739,
      "jack": 3740,
      "javaSCRIPT": 3741,
      "documen": 3742,
      "sort": 3743,
      "fied": 3744,
      "ads": 3745,
      "haha": 3746,
      "getKno": 3747,
      "getOwn": 3748,
      "kie": 3749,
      ")>\"\"\"": 3750,
      ")>\"\">\"": 3751,
      "Ġaa": 3752,
      "Ġas": 3753,
      "Ġaaa": 3754,
      "Ġaccess": 3755,
      "Ġaaaa": 3756,
      "clickTA": 3757,
      "toSta": 3758,
      "//<": 3759,
      "//><": 3760,
      "Ġxhr": 3761,
      ");>": 3762,
      ");}}\"": 3763,
      ");âĢĿ>": 3764,
      "ssl": 3765,
      "ssss": 3766,
      ")))": 3767,
      ")))\"\"": 3768,
      "))}</": 3769,
      "srcdoc": 3770,
      "888": 3771,
      "mpeg": 3772,
      "223": 3773,
      "22404": 3774,
      "2702": 3775,
      "oNloaD": 3776,
      "Ġ133": 3777,
      "Ġ114": 3778,
      "')//": 3779,
      "'));\"\">\"": 3780,
      "noSu": 3781,
      "/*///": 3782,
      "Ġ''": 3783,
      "Ġvalues": 3784,
      "weight": 3785,
      "slice": 3786,
      "Ġ100": 3787,
      "Ġ105": 3788,
      "Ġ108": 3789,
      "ther": 3790,
      "express": 3791,
      "card": 3792,
      "\\\"\")&": 3793,
      "\\\"\")'": 3794,
      ";&<": 3795,
      ";&&<": 3796,
      "ĠSYST": 3797,
      "ĠSuccess": 3798,
      "80439": 3799,
      "119": 3800,
      "='\"": 3801,
      "=''": 3802,
      "='(": 3803,
      "='/": 3804,
      "=';": 3805,
      "='\\": 3806,
      "='_": 3807,
      "='//": 3808,
      "='#\\": 3809,
      "ClickMe": 3810,
      "asfunction": 3811,
      "asdf": 3812,
      "Ġeval": 3813,
      ";.&": 3814,
      "stener": 3815,
      "IMGSRC": 3816,
      "\"\"><!": 3817,
      "237": 3818,
      "23101": 3819,
      "2397": 3820,
      "23116": 3821,
      "23114": 3822,
      "23108": 3823,
      "*/(": 3824,
      "bypass": 3825,
      "');+": 3826,
      "');>": 3827,
      "');//": 3828,
      "');\"\"></": 3829,
      "');//\"": 3830,
      ")//<": 3831,
      ")//>": 3832,
      ")//');": 3833,
      ")//>*/": 3834,
      ")//]>": 3835,
      "contentEditable": 3836,
      "addEvent": 3837,
      "Lead": 3838,
      "\"'\"\"></": 3839,
      "chorClick": 3840,
      "chMethod": 3841,
      "autoFocus": 3842,
      "';)>;": 3843,
      "neh": 3844,
      ")&&": 3845,
      "RmbG": 3846,
      "()//&": 3847,
      "()//'": 3848,
      "()//'>": 3849,
      "()//--></": 3850,
      "()//<</": 3851,
      "()//'//\"\"//": 3852,
      "']('": 3853,
      "']);>.": 3854,
      ">/<": 3855,
      "âĢĿâĢĿ": 3856,
      "clone": 3857,
      "Scrpt": 3858,
      "Ince": 3859,
      "\"\";</": 3860,
      "\"\";)>": 3861,
      "\"\";>;": 3862,
      ">/*/\\": 3863,
      "',{": 3864,
      "}})}": 3865,
      "=&{": 3866,
      "000003": 3867,
      "ies": 3868,
      ")'%": 3869,
      ")'\"\">\"": 3870,
      "Show": 3871,
      "ĠHere": 3872,
      "ĠHRef": 3873,
      "Descriptor": 3874,
      "ĠOnFocus": 3875,
      "/**/</": 3876,
      "/**/?.": 3877,
      "âĢĻ);âĢĿ>": 3878,
      "\\\\\\/\\\\\\": 3879,
      "=`&": 3880,
      "=``": 3881,
      "();\"": 3882,
      "();%": 3883,
      "();<": 3884,
      "portsw": 3885,
      "ĠonMouseDow": 3886,
      "ĠonMouseUp": 3887,
      "ĠonMouseWheel": 3888,
      "Ġ\"\"-": 3889,
      "Ġ\"\"<": 3890,
      "Ġ\"\"\"\"\"\"><": 3891,
      "Ġ\\/\\/": 3892,
      "143": 3893,
      "__^": 3894,
      "{},": 3895,
      "{}.": 3896,
      "{}).": 3897,
      "{}][": 3898,
      "ï¿½)ï¿½": 3899,
      "-->\"\"": 3900,
      "ĠĠĠĠĠ": 3901,
      "Search": 3902,
      ")')()</": 3903,
      "130180": 3904,
      "Ġattacker": 3905,
      ");}//\"": 3906,
      "opState": 3907,
      "]]();": 3908,
      "]]<![": 3909,
      "ĠonPopState": 3910,
      "rowser": 3911,
      "'/*\"\"/*": 3912,
      ";;>\"": 3913,
      "]+!": 3914,
      "googleapis": 3915,
      ")-%": 3916,
      "vita": 3917,
      "348": 3918,
      "vcm": 3919,
      "Ġreturn": 3920,
      "getElementsBy": 3921,
      "hoo": 3922,
      "something": 3923,
      "Ġwhic": 3924,
      "']((": 3925,
      "'))\\\"\"&": 3926,
      ";>'\"\"><": 3927,
      "=({}).": 3928,
      "then": 3929,
      "thecy": 3930,
      "vbs": 3931,
      "yahoo": 3932,
      "/--!&": 3933,
      "``>": 3934,
      "\\\\\\\\\\\\\\'": 3935,
      ";';\"\">": 3936,
      "hbGVydCgnWFNTJyk": 3937,
      "ĠAutoFocus": 3938,
      "ĠActiveXObject": 3939,
      "Ġaaaaaa": 3940,
      "Ġaaaaaaa": 3941,
      "Ġaaaaaaaa": 3942,
      "Ġaaaaaaaaaa": 3943,
      "Ġ--&": 3944,
      "Ġ---": 3945,
      "=\"\"#\"\"": 3946,
      "sendBe": 3947,
      ":/*-/*`/*\\`/*&#": 3948,
      ">--><<": 3949,
      "ĠFOR": 3950,
      "Ġiniti": 3951,
      "parentNode": 3952,
      "8680439": 3953,
      "=#><": 3954,
      "fake": 3955,
      "jAiIH": 3956,
      "HRw": 3957,
      "ãĤ¢": 3958,
      "Ġ?>": 3959,
      "Ġ//|\\\\": 3960,
      "00000003": 3961,
      "JaVaSCript": 3962,
      "'//`//\\\"\"//</": 3963,
      ":\"\"/*'/*`/*": 3964,
      ":\"\"/*\\\"\"/*`/*'": 3965,
      ":\"\"/*'//`//\\\"\"//</": 3966,
      "full": 3967,
      "maskForClick": 3968,
      ";!--&": 3969,
      "dHJ": 3970,
      "YWxlcnQoZG": 3971,
      "YWxlcnQoMS": 3972,
      "'\"\")`>\"": 3973,
      "'\"\"();<": 3974,
      "=>{": 3975,
      "cious": 3976,
      "wnLead": 3977,
      "resizeTo": 3978,
      "Ġonloaded": 3979,
      "?.(/": 3980,
      "VASCRIPT": 3981,
      "ZWQ": 3982,
      ")>\"\"@": 3983,
      "defineGetter": 3984,
      "TESTAnonKryptiQuz": 3985,
      "!#$%&()*~+-_.,:;?@[/|\\]^`=": 3986,
      "));}<\\/": 3987,
      ";**": 3988,
      "FyZS": 3989,
      "Listener": 3990,
      "PropertyDescriptor": 3991,
      "chend": 3992,
      "pOw": 3993,
      "}`;": 3994,
      "anything": 3995,
      "fileName": 3996,
      "');\\\"\">\"": 3997,
      "WFNTIik": 3998,
      "lbnQuY": 3999,
      "Ġontouchend": 4000,
      "($$": 4001,
      "($)</": 4002,
      "()).": 4003,
      ",[{}][": 4004,
      "Pointe": 4005,
      "zzz": 4006,
      "Ġsomething": 4007,
      "ĵï½ĵï½": 4008,
      "Ġonformdata": 4009,
      "\"'\"\"/><": 4010,
      "ï½ħï½ĺï½": 4011,
      "ĠonPageHide": 4012,
      "ĠonPageShow": 4013,
      "sCrIp": 4014,
      "Ġstrokecolor": 4015,
      "Ġstrokeweight": 4016,
      ">$=": 4017,
      "\\âĢĿ}})}": 4018,
      "dGl": 4019,
      "fcc": 4020,
      "xBB": 4021,
      "xyz": 4022,
      "åĺ¾": 4023,
      "decodeURIComponent": 4024,
      "poster": 4025,
      "ĠtargetElement": 4026,
      ")`()'>": 4027,
      "\"\"\"'`><\\": 4028,
      "())//</": 4029,
      ")*\"\"\"": 4030,
      "2807": 4031,
      "AnchorClick": 4032,
      "TagName": 4033,
      "Type": 4034,
      "\\``'>": 4035,
      "view": 4036,
      "youtube": 4037,
      "Ġoncuechange": 4038,
      "Ġonrepeat": 4039,
      "modified": 4040,
      "ScriPT": 4041,
      "))//ï¿½;": 4042,
      "hbGVydCgiWFNTIik": 4043,
      "checkbox": 4044,
      "-+-+": 4045,
      "._('": 4046,
      "<âĢĭ/": 4047,
      "=')},": 4048,
      ">+-+-": 4049,
      "Google": 4050,
      "Hello": 4051,
      "Identifi": 4052,
      "RWxlbWVu": 4053,
      "UnaryEx": 4054,
      "Value": 4055,
      "VFdmVu": 4056,
      "XYZ": 4057,
      "alize": 4058,
      "berneh": 4059,
      "bWxucz": 4060,
      "rocks": 4061,
      "whoami": 4062,
      "xvdWRmbG": 4063,
      "Ġfolder": 4064,
      "Ġdynsrc": 4065,
      "ĠJAVASCRIPT": 4066,
      "īï½ıï½": 4067,
      "Ĳï½Ĵï½ħï½": 4068,
      "onResize": 4069,
      "Ġontimeupdate": 4070,
      "Ġonfilterch": 4071,
      "stream": 4072,
      "malicious": 4073,
      "jacking": 4074,
      "getKnownLead": 4075,
      "getOwnPropertyDescriptor": 4076,
      "Ġaccesskey": 4077,
      "clickTAG": 4078,
      "toStaticHTML": 4079,
      "Ġ1337": 4080,
      "noSuchMethod": 4081,
      "expressio": 4082,
      "ĠSYSTEM": 4083,
      "addEventListener": 4084,
      "Inception": 4085,
      "portswigger": 4086,
      "ĠonMouseDown": 4087,
      "13018058": 4088,
      "getElementsByTagName": 4089,
      "Ġwhich": 4090,
      "thecyberneh": 4091,
      "sendBeacon": 4092,
      "Ġinitialize": 4093,
      "maskForClickjacking": 4094,
      "ĵï½ĵï½īï½ıï½": 4095,
      "ï½ħï½ĺï½Ĳï½Ĵï½ħï½": 4096,
      "sCrIpT": 4097,
      "\\âĢĿ}})})-": 4098,
      "Identifier": 4099,
      "UnaryExpression": 4100,
      "xvdWRmbGFyZS": 4101,
      "Ġonfilterchange": 4102,
      "ĵï½ĵï½īï½ıï½İ": 4103,
      "ï½ħï½ĺï½Ĳï½Ĵï½ħï½ĵï½ĵï½īï½ıï½İ": 4104,
      "!\"": 4105,
      "!/": 4106,
      "!_": 4107,
      "!\"\"": 4108,
      "!</": 4109,
      "!'))": 4110,
      "\"-": 4111,
      "\"[": 4112,
      "\"Â": 4113,
      "\"//": 4114,
      "\"/*": 4115,
      "\"/</": 4116,
      "\">\"\"": 4117,
      "\"#<": 4118,
      "\">\"\"><": 4119,
      "\"{\"\"": 4120,
      "\">'\"\"><": 4121,
      "#&": 4122,
      "#'": 4123,
      "#</": 4124,
      "#&#": 4125,
      "#*/": 4126,
      "#{\"\"": 4127,
      "#{{_": 4128,
      "'&": 4129,
      "'<": 4130,
      "'|": 4131,
      "';\"\"": 4132,
      "'\\\"\"": 4133,
      "';\"": 4134,
      "'\"\";": 4135,
      "':'": 4136,
      "')\"\"><": 4137,
      "(<": 4138,
      "(?": 4139,
      "(_": 4140,
      "(('": 4141,
      "((\"\"": 4142,
      "(\\\"\";": 4143,
      "((`": 4144,
      ")@": 4145,
      ")]": 4146,
      ")^": 4147,
      "));": 4148,
      "));</": 4149,
      ")',": 4150,
      ")();": 4151,
      ")()>": 4152,
      ")--><": 4153,
      "){}": 4154,
      ")/><": 4155,
      ")/.": 4156,
      ")()</": 4157,
      ")()}}": 4158,
      "))>%": 4159,
      ")âĢĻ)": 4160,
      ")âĢĿ>": 4161,
      "));\"\">": 4162,
      ")#{\"\"": 4163,
      "*[": 4164,
      "*)'": 4165,
      "+=": 4166,
      "+//": 4167,
      "+__": 4168,
      "+==": 4169,
      "+()+{": 4170,
      "+{},": 4171,
      ",/": 4172,
      ",_": 4173,
      ",(\"\"": 4174,
      "-'": 4175,
      ".%": 4176,
      ".\"\")": 4177,
      "/)\"\">": 4178,
      "/')": 4179,
      "/)>\"": 4180,
      "/'+": 4181,
      "/'/</": 4182,
      "/'\"\">": 4183,
      "074": 4184,
      "070": 4185,
      "0102": 4186,
      "129": 4187,
      "169": 4188,
      "246": 4189,
      "241": 4190,
      "373": 4191,
      "470": 4192,
      "445": 4193,
      "509": 4194,
      "541": 4195,
      "598": 4196,
      "683": 4197,
      "6001": 4198,
      "71": 4199,
      "774": 4200,
      "7333": 4201,
      "827": 4202,
      "8107": 4203,
      "92": 4204,
      "940": 4205,
      "941": 4206,
      "9348": 4207,
      ":<": 4208,
      ":[": 4209,
      ":\"\">\"": 4210,
      ":\"\";": 4211,
      ":`/*": 4212,
      ":`//": 4213,
      ":}}\"": 4214,
      ";:": 4215,
      ";')": 4216,
      ";;&#": 4217,
      ";)\"\">\"": 4218,
      ";[\"\"": 4219,
      ";`</": 4220,
      ";);//": 4221,
      ";)>\"\")\"": 4222,
      ";![": 4223,
      ";:&#": 4224,
      ";`>": 4225,
      ";);}&": 4226,
      "<>": 4227,
      "=-": 4228,
      "=/*": 4229,
      "=*/": 4230,
      "==\"\";": 4231,
      "='))\"\">\"": 4232,
      "={};": 4233,
      "={}[['__": 4234,
      ">'>\"": 4235,
      ">-->&": 4236,
      ">)@": 4237,
      ">*[": 4238,
      "?<": 4239,
      "?\\/": 4240,
      "?]{": 4241,
      "AS": 4242,
      "Aa": 4243,
      "Ac": 4244,
      "Ai": 4245,
      "Aprompt": 4246,
      "Area": 4247,
      "Acript": 4248,
      "Access": 4249,
      "App": 4250,
      "Aonauxclick": 4251,
      "Ba": 4252,
      "Bx": 4253,
      "Bz": 4254,
      "Block": 4255,
      "Bdocument": 4256,
      "Bsrc": 4257,
      "Base": 4258,
      "Bonerror": 4259,
      "BADw": 4260,
      "BpZ": 4261,
      "Cc": 4262,
      "Cp": 4263,
      "Cx": 4264,
      "Cress": 4265,
      "Cbutton": 4266,
      "Ciframe": 4267,
      "Chtml": 4268,
      "Cexpression": 4269,
      "Ccript": 4270,
      "Caaaaa": 4271,
      "DC": 4272,
      "Dsrc": 4273,
      "Drop": 4274,
      "Dbl": 4275,
      "Dtype": 4276,
      "Dxxx": 4277,
      "DDC": 4278,
      "Ed": 4279,
      "EAnonKryptiQuz": 4280,
      "End": 4281,
      "Edomain": 4282,
      "EClick": 4283,
      "FO": 4284,
      "Fo": 4285,
      "Fw": 4286,
      "Fsvg": 4287,
      "Fbutton": 4288,
      "Fiframe": 4289,
      "Ftitle": 4290,
      "Ftextarea": 4291,
      "Fonerror": 4292,
      "FOR": 4293,
      "GV": 4294,
      "HA": 4295,
      "Hac": 4296,
      "Href": 4297,
      "HREF": 4298,
      "IC": 4299,
      "Ix": 4300,
      "Inter": 4301,
      "ITY": 4302,
      "IGE": 4303,
      "IpO": 4304,
      "IwM": 4305,
      "IjAiIH": 4306,
      "Ju": 4307,
      "Jv": 4308,
      "Jz": 4309,
      "Jod": 4310,
      "JnL": 4311,
      "KS": 4312,
      "Lu": 4313,
      "Mn": 4314,
      "Ms": 4315,
      "My": 4316,
      "MjA": 4317,
      "Mub": 4318,
      "Nl": 4319,
      "Nr": 4320,
      "NhZ": 4321,
      "Oy": 4322,
      "Oscript": 4323,
      "OjA": 4324,
      "PV": 4325,
      "PW": 4326,
      "Pop": 4327,
      "Pass": 4328,
      "POC": 4329,
      "Qu": 4330,
      "Rv": 4331,
      "Rle": 4332,
      "Right": 4333,
      "ROR": 4334,
      "Rpb": 4335,
      "Ste": 4336,
      "Sto": 4337,
      "SVG": 4338,
      "TH": 4339,
      "TS": 4340,
      "Target": 4341,
      "Tit": 4342,
      "Ug": 4343,
      "Ur": 4344,
      "Us": 4345,
      "VTT": 4346,
      "WA": 4347,
      "World": 4348,
      "WEB": 4349,
      "YS": 4350,
      "Ye": 4351,
      "ZCA": 4352,
      "[^": 4353,
      "[<!": 4354,
      "[//.": 4355,
      "\\</": 4356,
      "\\');": 4357,
      "\\'/*\"\"/*": 4358,
      "]%": 4359,
      "]:": 4360,
      "]<": 4361,
      "]=": 4362,
      "]}": 4363,
      "]+'": 4364,
      "]-->": 4365,
      "])}}": 4366,
      "`;": 4367,
      "`><": 4368,
      "`))>\"": 4369,
      "`;(": 4370,
      "`;//": 4371,
      "`;>": 4372,
      "`);//\"": 4373,
      "`\\/*": 4374,
      "`\\\\\\/*": 4375,
      "`\\\\\\\\\\\\\\/*": 4376,
      "ax": 4377,
      "az": 4378,
      "ary": 4379,
      "able": 4380,
      "are": 4381,
      "adocument": 4382,
      "aab": 4383,
      "aonerror": 4384,
      "avar": 4385,
      "aON": 4386,
      "aWx": 4387,
      "aHR": 4388,
      "bu": 4389,
      "bin": 4390,
      "bid": 4391,
      "bthrow": 4392,
      "bile": 4393,
      "bvs": 4394,
      "browser": 4395,
      "cn": 4396,
      "cte": 4397,
      "cli": 4398,
      "cpa": 4399,
      "ciframe": 4400,
      "class": 4401,
      "charset": 4402,
      "dX": 4403,
      "ds": 4404,
      "dz": 4405,
      "dpt": 4406,
      "dnull": 4407,
      "dHR": 4408,
      "ez": 4409,
      "est": 4410,
      "esource": 4411,
      "een": 4412,
      "eXB": 4413,
      "efir": 4414,
      "fla": 4415,
      "fmpt": 4416,
      "gb": 4417,
      "gd": 4418,
      "gEx": 4419,
      "hc": 4420,
      "hi": 4421,
      "hy": 4422,
      "hover": 4423,
      "honerror": 4424,
      "hze": 4425,
      "hvita": 4426,
      "ible": 4427,
      "ick": 4428,
      "ive": 4429,
      "iste": 4430,
      "ique": 4431,
      "iNt": 4432,
      "iai": 4433,
      "iod": 4434,
      "iFrame": 4435,
      "iaHR": 4436,
      "jque": 4437,
      "jwvc": 4438,
      "jdGl": 4439,
      "ku": 4440,
      "king": 4441,
      "kdk": 4442,
      "lY": 4443,
      "lr": 4444,
      "mU": 4445,
      "md": 4446,
      "ms": 4447,
      "my": 4448,
      "mtext": 4449,
      "nJ": 4450,
      "nload": 4451,
      "ndom": 4452,
      "nOscript": 4453,
      "pc": 4454,
      "pan": 4455,
      "property": 4456,
      "pper": 4457,
      "pub": 4458,
      "qt": 4459,
      "sb": 4460,
      "sct": 4461,
      "simple": 4462,
      "sIG": 4463,
      "sZXJ": 4464,
      "tw": 4465,
      "tkb": 4466,
      "tYW": 4467,
      "uu": 4468,
      "ume": 4469,
      "uble": 4470,
      "ubG": 4471,
      "udf": 4472,
      "vI": 4473,
      "vol": 4474,
      "vic": 4475,
      "vtt": 4476,
      "wml": 4477,
      "wap": 4478,
      "xD": 4479,
      "xon": 4480,
      "xBC": 4481,
      "xKQ": 4482,
      "xhze": 4483,
      "yerror": 4484,
      "yZy": 4485,
      "your": 4486,
      "zt": 4487,
      "zwvc": 4488,
      "zcm": 4489,
      "zdm": 4490,
      "zIwM": 4491,
      "{'": 4492,
      "});": 4493,
      "}\"\">\"": 4494,
      "};\"": 4495,
      "};</": 4496,
      "}]{": 4497,
      "}{}*{-": 4498,
      "»;": 4499,
      "Â¢": 4500,
      "Â»;": 4501,
      "Å¾": 4502,
      "âĨ": 4503,
      "Ġ#": 4504,
      "Ġ$": 4505,
      "Ġ)": 4506,
      "Ġ.": 4507,
      "Ġ4": 4508,
      "ĠL": 4509,
      "Ġ[": 4510,
      "Ġi": 4511,
      "Ġo": 4512,
      "Ġipt": 4513,
      "Ġdoc": 4514,
      "Ġso": 4515,
      "Ġ97": 4516,
      "Ġ);": 4517,
      "Ġimg": 4518,
      "Ġconsole": 4519,
      "Ġlt": 4520,
      "Ġlocation": 4521,
      "Ġor": 4522,
      "Ġ46": 4523,
      "Ġtest": 4524,
      "Ġborder": 4525,
      "Ġbgsound": 4526,
      "Ġ99": 4527,
      "Ġ}}": 4528,
      "Ġcript": 4529,
      "Ġ--><": 4530,
      "ĠMouse": 4531,
      "Ġ\\\"\";": 4532,
      "ĠMouseEvent": 4533,
      "Ġ34": 4534,
      "Ġ//\"": 4535,
      "ĠOver": 4536,
      "Ġsize": 4537,
      "Ġmatch": 4538,
      "Ġof": 4539,
      "Ġ:;": 4540,
      "ĠMe": 4541,
      "Ġand": 4542,
      "Ġexec": 4543,
      "Ġ:-": 4544,
      "Ġ~~": 4545,
      "Ġ????????": 4546,
      "Ġ8680439": 4547,
      "Ġfake": 4548,
      "Ġfcc": 4549,
      "Ī/)": 4550,
      "ĺĪ/)": 4551,
      "onmo": 4552,
      "onkey": 4553,
      "onbe": 4554,
      "onstructor": 4555,
      "onevent": 4556,
      "onchrome": 4557,
      "ontimer": 4558,
      "onDbl": 4559,
      "lection": 4560,
      "\"\"+": 4561,
      "\"\"';": 4562,
      "\"\"/*`/*": 4563,
      "\"\"/><": 4564,
      "\"\"))\"": 4565,
      "\"\"=\"\"&": 4566,
      "\"\"&&": 4567,
      "\"\"\"\",\"\"": 4568,
      "\"\")';</": 4569,
      "\"\"?>\"": 4570,
      "rts": 4571,
      "tixx": 4572,
      "<//": 4573,
      "Ġonra": 4574,
      "Ġonduration": 4575,
      "Ġonselect": 4576,
      "Ġonprogress": 4577,
      "Ġonwheel": 4578,
      "Ġonen": 4579,
      "Ġonxxxx": 4580,
      "Ġonpop": 4581,
      "Ġonsearch": 4582,
      "Ġonproperty": 4583,
      "Ġonqt": 4584,
      "Ġonvol": 4585,
      "=\"\"_": 4586,
      "=\"\"/**/": 4587,
      "=\"\"/.": 4588,
      "=\"\"/\\": 4589,
      "tech": 4590,
      "techange": 4591,
      "><!--\"": 4592,
      "raW": 4593,
      "radio": 4594,
      "random": 4595,
      "rapper": 4596,
      "\"<<": 4597,
      "dif": 4598,
      "dis": 4599,
      "iner": 4600,
      "info": 4601,
      "init": 4602,
      "inopera": 4603,
      "instanceof": 4604,
      "AnonKryptiQuzabc": 4605,
      "taccess": 4606,
      ")\"\"&": 4607,
      ")\"\";\"": 4608,
      ")\"\"].": 4609,
      ")\"\");>\"": 4610,
      "mevent": 4611,
      "scronerror": 4612,
      "screen": 4613,
      "scripts": 4614,
      "make": 4615,
      "confir": 4616,
      "spli": 4617,
      "sport": 4618,
      "spyerror": 4619,
      "lab": 4620,
      "lar": 4621,
      "lative": 4622,
      "ded": 4623,
      "bleh": 4624,
      "refo": 4625,
      "reen": 4626,
      "lol": 4627,
      "look": 4628,
      "loudf": 4629,
      "coding": 4630,
      "vari": 4631,
      "answ": 4632,
      "angu": 4633,
      "erhere": 4634,
      "eries": 4635,
      "ueHN": 4636,
      "Ġcontextmenu": 4637,
      "libs": 4638,
      "poss": 4639,
      "foru": 4640,
      "\"\"\"|": 4641,
      "\"\"\"/>": 4642,
      "\"\"\">/": 4643,
      "\"\"\"==": 4644,
      "\"\"\">>": 4645,
      "keto": 4646,
      "double": 4647,
      "domevent": 4648,
      "0028": 4649,
      "00281": 4650,
      "rameter": 4651,
      "keys": 4652,
      "8354": 4653,
      "javascrip": 4654,
      "beh": 4655,
      ")\"\">'": 4656,
      ")\"\">//": 4657,
      "sed": 4658,
      "nds": 4659,
      "documentElement": 4660,
      "veTE": 4661,
      "ups": 4662,
      "upMethod": 4663,
      ")>#": 4664,
      ")>.": 4665,
      ")>/": 4666,
      ")>-->\"": 4667,
      "Ġar": 4668,
      "Ġakdk": 4669,
      "(''": 4670,
      "(',": 4671,
      "('&#": 4672,
      "(''.": 4673,
      "(''));": 4674,
      "tomno": 4675,
      "token": 4676,
      ");+": 4677,
      ");\"\"\"": 4678,
      ");/*": 4679,
      ");\"\"><": 4680,
      ");'><": 4681,
      ");\\\"\"&": 4682,
      ");'>\"": 4683,
      "))/": 4684,
      ")))>": 4685,
      "))'>": 4686,
      ")))`": 4687,
      "))<;/": 4688,
      ")))+": 4689,
      "))âĢĿ>": 4690,
      "logic": 4691,
      "Code": 4692,
      "220": 4693,
      "2748": 4694,
      "27428": 4695,
      "oNlY": 4696,
      "htt": 4697,
      "shop": 4698,
      "Ġ117": 4699,
      "Ġmethod": 4700,
      "')(": 4701,
      "')<": 4702,
      "')[": 4703,
      "'))\"\">": 4704,
      "'));\"": 4705,
      "')-%": 4706,
      "')\\\"\"\"": 4707,
      "nored": 4708,
      "noScript": 4709,
      "ach": 4710,
      "access": 4711,
      "/*<!--": 4712,
      "Ġ'$": 4713,
      "num": 4714,
      "cookieValue": 4715,
      "valueOf": 4716,
      "gtalert": 4717,
      "queries": 4718,
      "\\\\\\\"\"": 4719,
      "\\\\\"\";": 4720,
      "\\\\\"\")": 4721,
      "parameter": 4722,
      "Ġpop": 4723,
      "setInter": 4724,
      ";\"\"&#": 4725,
      ";\"\");": 4726,
      ";\"\";&#": 4727,
      ";\"\"/%": 4728,
      ";\"\"/*/": 4729,
      "existe": 4730,
      "caug": 4731,
      "\\\"\",": 4732,
      "\\\"\"-": 4733,
      "\\\"\"><": 4734,
      "\\\"\";\"": 4735,
      "\\\"\"\"\";": 4736,
      "\\\"\"/*`/*\\`/*": 4737,
      "\\\"\"/**/(/*": 4738,
      "\\\"\"+(": 4739,
      "\\\"\"'\"\"": 4740,
      ";&;#": 4741,
      "--&": 4742,
      "801": 4743,
      "(\"\"//": 4744,
      ")/>;'": 4745,
      "suggest": 4746,
      "marketo": 4747,
      "htmlfile": 4748,
      "()âĢĻ": 4749,
      "()/*<": 4750,
      "()<âĢĭ/": 4751,
      "ignored": 4752,
      "rigger": 4753,
      "1111": 4754,
      "000000000": 4755,
      "000070": 4756,
      "00000072": 4757,
      "='<": 4758,
      "='';": 4759,
      "='',": 4760,
      "='\\\"\"+(": 4761,
      "xxe": 4762,
      "xxxxx": 4763,
      "Ġelem": 4764,
      "animateMo": 4765,
      "stead": 4766,
      "stealt": 4767,
      "Ġ23": 4768,
      "âĢĵ": 4769,
      "scriptaccess": 4770,
      "OnMo": 4771,
      "OnMouse": 4772,
      "OnLu": 4773,
      "\"\">*/": 4774,
      "\"\">/*<": 4775,
      "\"\">]><": 4776,
      "=\\&": 4777,
      "://\"": 4778,
      "://</": 4779,
      "://\"\"></": 4780,
      "://--></": 4781,
      "254": 4782,
      "2526": 4783,
      "25281": 4784,
      "cudz": 4785,
      "proxy": 4786,
      "subdomain": 4787,
      "/%%": 4788,
      "itter": 4789,
      "itworks": 4790,
      "231": 4791,
      "238": 4792,
      "239": 4793,
      "2341": 4794,
      "23115": 4795,
      "2300000000": 4796,
      "2302": 4797,
      "*/;": 4798,
      "*/<": 4799,
      "*/>\"": 4800,
      "SvG": 4801,
      "lEval": 4802,
      "plain": 4803,
      "');\\\"\"\"": 4804,
      "');\\\\\"\")": 4805,
      "2845": 4806,
      ")//'": 4807,
      ")//';": 4808,
      ")//âĢĿ": 4809,
      "contentWindow": 4810,
      ">//<": 4811,
      "metadata": 4812,
      "Mobile": 4813,
      "listingimage": 4814,
      "textArea": 4815,
      "=\\\"\"//": 4816,
      "/*/;{": 4817,
      "endif": 4818,
      "child": 4819,
      "unique": 4820,
      "';)<;/": 4821,
      "'`%": 4822,
      ">\\<": 4823,
      "()//*": 4824,
      "()//>": 4825,
      "()//*/": 4826,
      "()//\\\"\";": 4827,
      "()//>\\\\": 4828,
      ">]]>": 4829,
      "'][": 4830,
      "'])\"\">\"": 4831,
      ">/&": 4832,
      "['\\": 4833,
      "=%(": 4834,
      "ScripT": 4835,
      "ScriPt": 4836,
      "\"\";)<;/": 4837,
      "attacker": 4838,
      "Ġ=>": 4839,
      "',+": 4840,
      "',+'": 4841,
      "BCeXB": 4842,
      "XXXXX": 4843,
      "634": 4844,
      "0000066": 4845,
      "00000223": 4846,
      ";)`": 4847,
      ";)&#": 4848,
      ";)/*<!--": 4849,
      "Firefo": 4850,
      ");//<": 4851,
      ")'></": 4852,
      ")')\"\"/>\"": 4853,
      ")'}{}*{-": 4854,
      "3956": 4855,
      "7355": 4856,
      "7327428": 4857,
      "690": 4858,
      "6931": 4859,
      "Def": 4860,
      "ĠOnload": 4861,
      "ĠOnXxx": 4862,
      "ĠOnPointe": 4863,
      "0007": 4864,
      "00074": 4865,
      "/**/='": 4866,
      "âĢĻ;": 4867,
      "âĢĻ><": 4868,
      "âĢĻ))âĢĿ>": 4869,
      "151": 4870,
      "156": 4871,
      "1558": 4872,
      "1537": 4873,
      "152807": 4874,
      "Result": 4875,
      "RegEx": 4876,
      "Style": 4877,
      "=`<": 4878,
      "=`\\": 4879,
      "Ġcx": 4880,
      "Ġcy": 4881,
      "Ġcmd": 4882,
      "();}": 4883,
      ";//;": 4884,
      ";//--></": 4885,
      "()>*/": 4886,
      "DAvc": 4887,
      "nerDocument": 4888,
      "))//--></": 4889,
      "))//\"\";\"": 4890,
      "))//#%": 4891,
      "--><<": 4892,
      "+'(": 4893,
      "Chrome": 4894,
      "Ġ\"\"\"\">\"": 4895,
      "ENTEr": 4896,
      "ENTITY": 4897,
      "ifr": 4898,
      "ifra": 4899,
      "uffe": 4900,
      "XMLHTTP": 4901,
      "__('": 4902,
      "{}@": 4903,
      "{}[": 4904,
      "{},[": 4905,
      "ï¿½><": 4906,
      "-->\"\"></": 4907,
      "'>&": 4908,
      "124": 4909,
      "Ġ*/;": 4910,
      "ĠĠĠĠĠĠĠ": 4911,
      "/*`/*\\\"\"/*": 4912,
      "openBlock": 4913,
      ":/*%": 4914,
      ":/*\"\"/*`/*": 4915,
      "âĢĺ;": 4916,
      ")')+": 4917,
      ")')()>": 4918,
      ")')()\"\">": 4919,
      ")'):[].": 4920,
      "134": 4921,
      "137": 4922,
      "<!--\"": 4923,
      "<!--'%": 4924,
      "vAsCrIpT": 4925,
      ");});": 4926,
      ");})</": 4927,
      ");};>": 4928,
      ")`%": 4929,
      ")``>\"": 4930,
      "aDo": 4931,
      ")}&": 4932,
      ")}@": 4933,
      ")});": 4934,
      "Bypass": 4935,
      "ByPass": 4936,
      "]]&": 4937,
      "]](": 4938,
      "]]</": 4939,
      "]](\"\"": 4940,
      "bGlu": 4941,
      "gohttp": 4942,
      "jcmV": 4943,
      "0031": 4944,
      "<<<": 4945,
      "player": 4946,
      ">\"\"`": 4947,
      ">\"\"\"\"\"\",\"\"": 4948,
      "NjcmlwdDph": 4949,
      "'/*\\\"\"/*": 4950,
      "'/*\\'/*\"\"/*": 4951,
      "'/*\\\"\"/**/(/*": 4952,
      "GEpOw": 4953,
      "],'": 4954,
      "rEnter": 4955,
      ")\\*?": 4956,
      "ERROR": 4957,
      "ERENTEr": 4958,
      "]+(": 4959,
      "]+[": 4960,
      "]+{},[": 4961,
      "10503": 4962,
      ")-&": 4963,
      ")-&#": 4964,
      ">#<": 4965,
      "3488": 4966,
      "Testing": 4967,
      "vccpa": 4968,
      "Ġ(_=": 4969,
      "Ġrelative": 4970,
      "${/*/;{": 4971,
      "somecommand": 4972,
      "somevari": 4973,
      "dCgic": 4974,
      ")+{}": 4975,
      ")+\\\"\"'\"\"": 4976,
      "75598": 4977,
      "856": 4978,
      "NoaWx": 4979,
      "ldk": 4980,
      "ldz": 4981,
      "ownerDocument": 4982,
      "Ġ/,": 4983,
      "PHN": 4984,
      "Ġ}+": 4985,
      "ScriptAccess": 4986,
      "')).": 4987,
      "...": 4988,
      "xAFjavascript": 4989,
      "ãĥĦ": 4990,
      "ãĥĬ": 4991,
      "ãĥĮ": 4992,
      "ãĥı": 4993,
      "ãĥĺ": 4994,
      "ãĥŁ": 4995,
      "=\"\"><\"\">/*<": 4996,
      "=()%": 4997,
      ">&&<": 4998,
      "aler": 4999,
      "thesite": 5000,
      "ContentUnits": 5001,
      "Nodes": 5002,
      "bGVydCgxKQ": 5003,
      "/--!>\\\\": 5004,
      ">%(": 5005,
      "``>\"": 5006,
      "archy": 5007,
      "period": 5008,
      "\"{{'": 5009,
      ")();</": 5010,
      ")();//": 5011,
      "166": 5012,
      ";'&": 5013,
      ";'\\\"\"": 5014,
      ";';&#": 5015,
      "<%<!--'%": 5016,
      "=<><": 5017,
      "=?%": 5018,
      "][\\": 5019,
      "ĠAllow": 5020,
      "ĠRS": 5021,
      "Ġaaaaaaaaa": 5022,
      "\"`'\"\";": 5023,
      "blabla": 5024,
      ">;<;![": 5025,
      "';);\"\";>;<;/": 5026,
      ")';-": 5027,
      "844": 5028,
      ">'-->\"\"></": 5029,
      "Uncaug": 5030,
      "VuZE": 5031,
      "dWV": 5032,
      "Ġinstanceof": 5033,
      "Ġinstead": 5034,
      "ĠAnonKryptiQuzed": 5035,
      "Ġ/**": 5036,
      "parentWindow": 5037,
      "jAvascript": 5038,
      "jAvAsCrIpT": 5039,
      "ĠONERROR": 5040,
      "createEvent": 5041,
      "âĢĻ)âĢĿ": 5042,
      "âĢĻ)<%": 5043,
      "/\\/%": 5044,
      "0687": 5045,
      "ãĤ»": 5046,
      "\"\"//\\\"\"//</": 5047,
      "()/*'": 5048,
      "579": 5049,
      "=++": 5050,
      "==\"\">\"": 5051,
      "tagName": 5052,
      "000000029": 5053,
      "(\\'": 5054,
      ",%%": 5055,
      ":\"\"/*\\\"\"/*": 5056,
      "vmlframe": 5057,
      "xCB": 5058,
      "\"\")));": 5059,
      "')\"\")}</": 5060,
      "();//</": 5061,
      "0146": 5062,
      ";!--#": 5063,
      "dHA": 5064,
      "dHBz": 5065,
      "evt": 5066,
      "sgTE": 5067,
      "while": 5068,
      "????\"": 5069,
      "'};\"\");": 5070,
      ",,,": 5071,
      "1450": 5072,
      "1455": 5073,
      "5176": 5074,
      "=âĢĻ&#": 5075,
      "IiB": 5076,
      "LmFw": 5077,
      "]['\\": 5078,
      "esn": 5079,
      "=\"\"%><": 5080,
      "complete": 5081,
      "help": 5082,
      "&&/": 5083,
      "&&>": 5084,
      "&&>\"": 5085,
      ":\"\"/*`/*\\\"\"/*": 5086,
      "?.(": 5087,
      "ACc": 5088,
      "YXIg": 5089,
      "YXRl": 5090,
      "YXNjcmlwdDph": 5091,
      "[<]]": 5092,
      "bber": 5093,
      "cmd": 5094,
      "dmFy": 5095,
      "Ġgte": 5096,
      "Ġgot": 5097,
      "Ġgive": 5098,
      "Ġgreen": 5099,
      "\"\"\"'`>": 5100,
      ")>\"\"-": 5101,
      ");\"\">]]</": 5102,
      "')}\"\">\"": 5103,
      "/**/**": 5104,
      "__']],'": 5105,
      "TESTTEST": 5106,
      "!#$%&()*~+-_": 5107,
      "!#$%&;()*~+-_.,:;?@[/|\\]^`=": 5108,
      "List": 5109,
      "Ġonplaying": 5110,
      "><><><><": 5111,
      "');\\\"\")\"\";": 5112,
      "navigation": 5113,
      "']['\\": 5114,
      "hostname": 5115,
      "lbnQuZG": 5116,
      "PSIx": 5117,
      "PSJod": 5118,
      "PoiNt": 5119,
      "]=[!!": 5120,
      "]=[]+{},[": 5121,
      "server": 5122,
      "Ġitworksin": 5123,
      "Ġonformchange": 5124,
      "Ġallowscriptaccess": 5125,
      "')\\\"\");}&": 5126,
      "')\\\"\")}&": 5127,
      "/*-*/": 5128,
      ")//#\"\">": 5129,
      "\"'\"\"`><": 5130,
      "))//\\&": 5131,
      "sCripT": 5132,
      "\"\\\"\"><": 5133,
      "\"\\\"\"));}": 5134,
      ")');}}": 5135,
      "IGh": 5136,
      "\\âĢĿ-": 5137,
      "amF": 5138,
      "allbrowser": 5139,
      "fcli": 5140,
      "luKQ": 5141,
      "åĺ¼": 5142,
      "ðŁĺĪ/)": 5143,
      "ĠmaskUnits": 5144,
      "ĠmaskContentUnits": 5145,
      "\"\"]@": 5146,
      "postdomevent": 5147,
      "))})</": 5148,
      "='/*</": 5149,
      "='/*--><": 5150,
      ";)}&": 5151,
      "))//--&": 5152,
      ")`()]>": 5153,
      "<<<<<": 5154,
      "KTtldk": 5155,
      "*/>/*%": 5156,
      "++],": 5157,
      "+[]]": 5158,
      ":-)>": 5159,
      ">?\"": 5160,
      "XSL": 5161,
      "ZnPg": 5162,
      "Zmly": 5163,
      "cGVuZE": 5164,
      "charts": 5165,
      "func": 5166,
      "grave": 5167,
      "grabber": 5168,
      "mnom": 5169,
      "xBFexpression": 5170,
      "youare": 5171,
      "Ġ^__^": 5172,
      "Ġtry": 5173,
      "Ġonlyposs": 5174,
      "scriptualert": 5175,
      "brutelogic": 5176,
      "hackerone": 5177,
      ");');}</": 5178,
      "Ġencode": 5179,
      "Ġencoding": 5180,
      "=\\\"\"/\\\"\"": 5181,
      "1538354": 5182,
      "aaaaaaaaaaaa": 5183,
      ":/*\"\"/*'/*`/*": 5184,
      ")')()\"": 5185,
      "\\\\\\\\\\\\\\/\\\\\\\\\\\\\\/%": 5186,
      "ZSwgdHJ": 5187,
      "Ġontouchstart": 5188,
      "Ġonseeked": 5189,
      "Ġonseeking": 5190,
      "global": 5191,
      "globalEval": 5192,
      "\"[\"\"');": 5193,
      "'(.*)'": 5194,
      ")?>": 5195,
      ")-->.": 5196,
      "4586": 5197,
      "5277327428": 5198,
      "8203": 5199,
      ":{}});": 5200,
      "=@&#": 5201,
      ">;\"\";>;\"": 5202,
      "ABDDC": 5203,
      "Ijtkb": 5204,
      "JlYXRl": 5205,
      "KCl": 5206,
      "Payload": 5207,
      "Transform": 5208,
      "VtZW": 5209,
      "`]`": 5210,
      "kKGEpOw": 5211,
      "sxvccpa": 5212,
      "uxldz": 5213,
      "zLmh": 5214,
      "ï¼ŀ": 5215,
      "Ġdoing": 5216,
      "Ġrequired": 5217,
      "\"\"\"\"<": 5218,
      "\"\"\"}]}": 5219,
      "00762702": 5220,
      "\\\"\")'&": 5221,
      ";&&<&&/": 5222,
      ")&&;&&<&&/": 5223,
      "()//'>\"\"><": 5224,
      "\"\";)>;\"": 5225,
      "/**/?.['": 5226,
      "\\\\\\/\\\\\\/%": 5227,
      "{}.\"\")));": 5228,
      "vcmcv": 5229,
      ":\"\"/*'/*`/*\\\"\"": 5230,
      "YWxlcnQoMSk": 5231,
      "Ġonloadedmetadata": 5232,
      ";**&": 5233,
      "anythinglr": 5234,
      "HelloWorld": 5235,
      "RWxlbWVudCgic": 5236,
      "bWxuczp": 5237,
      "maliciouscode": 5238,
      "xvdWRmbGFyZSBCeXB": 5239,
      "!'))()": 5240,
      "\"Â«": 5241,
      "\">\"\"'><": 5242,
      "+==+": 5243,
      ",_(": 5244,
      ",(\"\"\"\"\"\"<": 5245,
      ".\"\"),(\"\"\"\"\"\"<": 5246,
      "0701": 5247,
      "4705277327428": 5248,
      "941634": 5249,
      ":`/*\\\"\"/*": 5250,
      ":`//\"\"//\\\"\"//</": 5251,
      "=/*${/*/;{": 5252,
      ">*[{}@": 5253,
      "AppList": 5254,
      "BpZD": 5255,
      "Cression": 5256,
      "Hacked": 5257,
      "IpOzwvc": 5258,
      "JnLzIwM": 5259,
      "Msxml": 5260,
      "NlZCA": 5261,
      "NhZmU": 5262,
      "OyB": 5263,
      "Popups": 5264,
      "RvY": 5265,
      "RleHQ": 5266,
      "Steiner": 5267,
      "TargetAS": 5268,
      "Title": 5269,
      "WEBVTT": 5270,
      "Yetixx": 5271,
      "])}};": 5272,
      "ables": 5273,
      "aabb": 5274,
      "aONPoiNt": 5275,
      "client": 5276,
      "flag": 5277,
      "ibleinopera": 5278,
      "jquery": 5279,
      "panel": 5280,
      "twitter": 5281,
      "tYWluKQ": 5282,
      "umechange": 5283,
      "wapforu": 5284,
      "xhzeem": 5285,
      "zcmM": 5286,
      "âĨĵ": 5287,
      "Ġ\\\"\";<;": 5288,
      "Ġexecu": 5289,
      "Ġ:-(": 5290,
      "Ġ~~~": 5291,
      "Ġ????????????\"": 5292,
      "ĠfakeData": 5293,
      "onDblClick": 5294,
      "\"\"&&>&&<": 5295,
      "Ġonratechange": 5296,
      "Ġondurationchange": 5297,
      "Ġonended": 5298,
      "Ġonpopstate": 5299,
      "Ġonpropertychange": 5300,
      "Ġonvolumechange": 5301,
      "AnonKryptiQuzabcd": 5302,
      "makePopups": 5303,
      "split": 5304,
      "lookupMethod": 5305,
      "answerhere": 5306,
      "angular": 5307,
      "ueHNzLmh": 5308,
      "veTEueHNzLmh": 5309,
      "tomnomnom": 5310,
      ");/*';\"\">": 5311,
      "setInterval": 5312,
      "existent": 5313,
      "\\\"\"/*`/*\\`/*%": 5314,
      ")/>;'\"\"//": 5315,
      "animateMotion": 5316,
      "stealthy": 5317,
      "OnLuFy": 5318,
      "\"\">*/)});": 5319,
      "cudzMub": 5320,
      "itworksonchrome": 5321,
      "230000000000000000": 5322,
      "');\\\\\"\")\\\"\";\"": 5323,
      ")//âĢĿ;": 5324,
      "MobileAppList": 5325,
      "childNodes": 5326,
      "uniqueLink": 5327,
      "',+'/": 5328,
      ";)/*<!--></": 5329,
      "Firefox": 5330,
      "ĠOnPointerEnter": 5331,
      "15372748": 5332,
      "15280710503": 5333,
      "Results": 5334,
      "RegExp": 5335,
      ":/*\"\"/*`/*'/*\\\"\"/*": 5336,
      "'/*\\'/*\"\"/*\\\"\"/*`/*\\`/*%": 5337,
      "somevariables": 5338,
      "NoaWxkKGEpOw": 5339,
      "thesiteyouare": 5340,
      "<%<!--'%><": 5341,
      "ĠAllowScriptAccess": 5342,
      "\"`'\"\";//><": 5343,
      "Uncaught": 5344,
      "dHBzOi": 5345,
      "LmFwcGVuZE": 5346,
      "YXNjcmlwdDphbGVydCgxKQ": 5347,
      "dmFyIGE": 5348,
      "Ġgiveanswerhere": 5349,
      "PSJodHRw": 5350,
      "Ġitworksinallbrowser": 5351,
      "postdomevents": 5352,
      "Ġonlypossibleinopera": 5353,
      "'(.*)'/": 5354,
      "JlYXRlRWxlbWVudCgic": 5355,
      "sxvccpasgTE": 5356,
      "\"\"\"}]}';": 5357,
      "007627024705277327428": 5358,
      "xvdWRmbGFyZSBCeXBhc": 5359,
      "=/*${/*/;{/**/(": 5360,
      "JnLzIwMDAvc": 5361,
      "aONPoiNtERENTEr": 5362,
      "wapforum": 5363,
      "thesiteyouareon": 5364,
      "LmFwcGVuZENoaWxkKGEpOw": 5365,
      "Ġitworksinallbrowsers": 5366
    },
    "merges": [
      [
        "o",
        "n"
      ],
      [
        "l",
        "e"
      ],
      [
        "\"",
        "\""
      ],
      [
        "r",
        "t"
      ],
      [
        "t",
        "i"
      ],
      [
        "<",
        "/"
      ],
      [
        "Ġ",
        "on"
      ],
      [
        "le",
        "rt"
      ],
      [
        "a",
        "lert"
      ],
      [
        "s",
        "t"
      ],
      [
        "=",
        "\"\""
      ],
      [
        "t",
        "e"
      ],
      [
        "y",
        "le"
      ],
      [
        "st",
        "yle"
      ],
      [
        ">",
        "\""
      ],
      [
        ">",
        "<"
      ],
      [
        "r",
        "a"
      ],
      [
        "\"",
        "<"
      ],
      [
        "o",
        "c"
      ],
      [
        "d",
        "i"
      ],
      [
        "i",
        "n"
      ],
      [
        "p",
        "ti"
      ],
      [
        "r",
        "y"
      ],
      [
        "u",
        "z"
      ],
      [
        "n",
        "on"
      ],
      [
        "A",
        "non"
      ],
      [
        "K",
        "ry"
      ],
      [
        "Q",
        "uz"
      ],
      [
        "pti",
        "Quz"
      ],
      [
        "Anon",
        "Kry"
      ],
      [
        "AnonKry",
        "ptiQuz"
      ],
      [
        "t",
        "a"
      ],
      [
        ")",
        "\"\""
      ],
      [
        "p",
        "t"
      ],
      [
        "m",
        "e"
      ],
      [
        "ti",
        "on"
      ],
      [
        "Ġ",
        "style"
      ],
      [
        "c",
        "r"
      ],
      [
        "s",
        "cr"
      ],
      [
        "i",
        "pt"
      ],
      [
        "r",
        "o"
      ],
      [
        "l",
        "oc"
      ],
      [
        "scr",
        "ipt"
      ],
      [
        "m",
        "a"
      ],
      [
        "c",
        "on"
      ],
      [
        "s",
        "p"
      ],
      [
        "l",
        "a"
      ],
      [
        "u",
        "t"
      ],
      [
        "u",
        "s"
      ],
      [
        "b",
        "r"
      ],
      [
        "&",
        "#"
      ],
      [
        "d",
        "e"
      ],
      [
        "b",
        "le"
      ],
      [
        "r",
        "e"
      ],
      [
        "loc",
        "k"
      ],
      [
        "b",
        "lock"
      ],
      [
        "la",
        "y"
      ],
      [
        "di",
        "sp"
      ],
      [
        "disp",
        "lay"
      ],
      [
        ">",
        "</"
      ],
      [
        "ra",
        "g"
      ],
      [
        "d",
        "rag"
      ],
      [
        "l",
        "o"
      ],
      [
        "c",
        "o"
      ],
      [
        "v",
        "a"
      ],
      [
        "a",
        "n"
      ],
      [
        "n",
        "te"
      ],
      [
        "i",
        "d"
      ],
      [
        "1",
        "0"
      ],
      [
        "m",
        "o"
      ],
      [
        "i",
        "ma"
      ],
      [
        "n",
        "t"
      ],
      [
        "Ġ",
        "id"
      ],
      [
        "con",
        "te"
      ],
      [
        "t",
        "r"
      ],
      [
        "e",
        "r"
      ],
      [
        "u",
        "e"
      ],
      [
        "s",
        "v"
      ],
      [
        "ta",
        "ble"
      ],
      [
        "n",
        "s"
      ],
      [
        "t",
        "ra"
      ],
      [
        "mo",
        "us"
      ],
      [
        "Ġ",
        "conte"
      ],
      [
        "di",
        "table"
      ],
      [
        "l",
        "i"
      ],
      [
        "nte",
        "ditable"
      ],
      [
        "Ġconte",
        "nteditable"
      ],
      [
        "Ġon",
        "mous"
      ],
      [
        "tra",
        "ns"
      ],
      [
        "ima",
        "tion"
      ],
      [
        "p",
        "o"
      ],
      [
        "sv",
        "g"
      ],
      [
        "Ġonmous",
        "e"
      ],
      [
        "f",
        "o"
      ],
      [
        "g",
        "e"
      ],
      [
        "\"\"",
        "\""
      ],
      [
        "i",
        "tion"
      ],
      [
        "10",
        "1"
      ],
      [
        "an",
        "imation"
      ],
      [
        "ro",
        "m"
      ],
      [
        "k",
        "e"
      ],
      [
        "oc",
        "us"
      ],
      [
        "f",
        "ocus"
      ],
      [
        "d",
        "o"
      ],
      [
        "0",
        "0"
      ],
      [
        "j",
        "a"
      ],
      [
        "ra",
        "me"
      ],
      [
        "tr",
        "ue"
      ],
      [
        "trans",
        "ition"
      ],
      [
        "f",
        "rame"
      ],
      [
        "r",
        "m"
      ],
      [
        "ke",
        "y"
      ],
      [
        "}",
        "</"
      ],
      [
        "8",
        "3"
      ],
      [
        "Ġ",
        "{"
      ],
      [
        "g",
        "a"
      ],
      [
        "c",
        "k"
      ],
      [
        "ja",
        "va"
      ],
      [
        "drag",
        "ga"
      ],
      [
        "dragga",
        "ble"
      ],
      [
        "Ġ",
        "draggable"
      ],
      [
        "b",
        "e"
      ],
      [
        ")\"\"",
        ">"
      ],
      [
        "d",
        "oc"
      ],
      [
        "doc",
        "u"
      ],
      [
        "me",
        "nt"
      ],
      [
        "Ġ",
        "ta"
      ],
      [
        "de",
        "x"
      ],
      [
        "in",
        "dex"
      ],
      [
        "java",
        "script"
      ],
      [
        ")",
        "></"
      ],
      [
        "b",
        "index"
      ],
      [
        "Ġta",
        "bindex"
      ],
      [
        "s",
        "o"
      ],
      [
        "Ġon",
        "drag"
      ],
      [
        "f",
        "i"
      ],
      [
        "di",
        "v"
      ],
      [
        "s",
        "e"
      ],
      [
        "a",
        "d"
      ],
      [
        "li",
        "ck"
      ],
      [
        "h",
        "e"
      ],
      [
        "h",
        "a"
      ],
      [
        "n",
        "d"
      ],
      [
        "docu",
        "ment"
      ],
      [
        "v",
        "e"
      ],
      [
        "ge",
        "t"
      ],
      [
        "p",
        "ut"
      ],
      [
        "9",
        "7"
      ],
      [
        "r",
        "c"
      ],
      [
        "v",
        "er"
      ],
      [
        "k",
        "i"
      ],
      [
        "r",
        "get"
      ],
      [
        "u",
        "p"
      ],
      [
        ")",
        ">"
      ],
      [
        "Ġ",
        "a"
      ],
      [
        "ut",
        "o"
      ],
      [
        "in",
        "put"
      ],
      [
        "S",
        "S"
      ],
      [
        "Ġon",
        "be"
      ],
      [
        "(",
        "'"
      ],
      [
        "X",
        "SS"
      ],
      [
        "lo",
        "r"
      ],
      [
        "co",
        "lor"
      ],
      [
        "i",
        "m"
      ],
      [
        "c",
        "lick"
      ],
      [
        "t",
        "o"
      ],
      [
        ")\"\"",
        "></"
      ],
      [
        "in",
        "te"
      ],
      [
        "/",
        "/"
      ],
      [
        "frame",
        "s"
      ],
      [
        "ro",
        "r"
      ],
      [
        "Ġ",
        "x"
      ],
      [
        ")",
        ";"
      ],
      [
        "p",
        "rom"
      ],
      [
        "prom",
        "pt"
      ],
      [
        "s",
        "s"
      ],
      [
        "uto",
        "focus"
      ],
      [
        "im",
        "g"
      ],
      [
        "o",
        "ut"
      ],
      [
        "ta",
        "rget"
      ],
      [
        "Ġa",
        "utofocus"
      ],
      [
        ")",
        ")"
      ],
      [
        "s",
        "rc"
      ],
      [
        "fi",
        "rm"
      ],
      [
        ">",
        "@"
      ],
      [
        "con",
        "firm"
      ],
      [
        "f",
        "rom"
      ],
      [
        "po",
        "inte"
      ],
      [
        "n",
        "a"
      ],
      [
        "lo",
        "g"
      ],
      [
        "key",
        "frames"
      ],
      [
        "nte",
        "r"
      ],
      [
        "Ġon",
        "pointe"
      ],
      [
        "er",
        "ror"
      ],
      [
        "fo",
        "re"
      ],
      [
        "8",
        "8"
      ],
      [
        "Ġonbe",
        "fore"
      ],
      [
        "C",
        "o"
      ],
      [
        "o",
        "ver"
      ],
      [
        "in",
        "g"
      ],
      [
        "m",
        "p"
      ],
      [
        "lo",
        "ad"
      ],
      [
        "Ġon",
        "focus"
      ],
      [
        "i",
        "te"
      ],
      [
        "do",
        "w"
      ],
      [
        "con",
        "so"
      ],
      [
        "e",
        "nter"
      ],
      [
        "2",
        "2"
      ],
      [
        "S",
        "tr"
      ],
      [
        "e",
        "nd"
      ],
      [
        "na",
        "me"
      ],
      [
        "Ġon",
        "transition"
      ],
      [
        ">",
        ":"
      ],
      [
        "2",
        "7"
      ],
      [
        ";",
        "}</"
      ],
      [
        "r",
        "Co"
      ],
      [
        "ro",
        "p"
      ],
      [
        "o",
        "N"
      ],
      [
        "Str",
        "ing"
      ],
      [
        "fo",
        "rm"
      ],
      [
        "a",
        "rt"
      ],
      [
        "h",
        "t"
      ],
      [
        "va",
        "l"
      ],
      [
        "s",
        "h"
      ],
      [
        "d",
        "rop"
      ],
      [
        "o",
        "ki"
      ],
      [
        "from",
        "C"
      ],
      [
        "ma",
        "in"
      ],
      [
        "Ġ",
        "src"
      ],
      [
        "Ġ",
        "1"
      ],
      [
        "ra",
        "tion"
      ],
      [
        "Ġ",
        "me"
      ],
      [
        "e",
        "l"
      ],
      [
        "Ġon",
        "error"
      ],
      [
        "'",
        ")"
      ],
      [
        "\"\"\"",
        "><"
      ],
      [
        "co",
        "oki"
      ],
      [
        "n",
        "o"
      ],
      [
        "Ġon",
        "key"
      ],
      [
        "a",
        "b"
      ],
      [
        "re",
        "ss"
      ],
      [
        "b",
        "ut"
      ],
      [
        "t",
        "on"
      ],
      [
        "but",
        "ton"
      ],
      [
        "Ġ",
        "oN"
      ],
      [
        "b",
        "l"
      ],
      [
        "d",
        "a"
      ],
      [
        "st",
        "art"
      ],
      [
        "Ġon",
        "load"
      ],
      [
        "a",
        "c"
      ],
      [
        "c",
        "an"
      ],
      [
        "Ġonpointe",
        "r"
      ],
      [
        "te",
        "x"
      ],
      [
        "b",
        "o"
      ],
      [
        "p",
        "x"
      ],
      [
        "Ġon",
        "animation"
      ],
      [
        "dow",
        "n"
      ],
      [
        "a",
        "ve"
      ],
      [
        "/",
        "*"
      ],
      [
        "re",
        "d"
      ],
      [
        "g",
        "g"
      ],
      [
        "do",
        "main"
      ],
      [
        "le",
        "ave"
      ],
      [
        ")",
        "</"
      ],
      [
        "Ġ",
        "'"
      ],
      [
        "to",
        "gg"
      ],
      [
        "n",
        "u"
      ],
      [
        "conso",
        "le"
      ],
      [
        "trans",
        "form"
      ],
      [
        "ha",
        "rCo"
      ],
      [
        "harCo",
        "de"
      ],
      [
        "fromC",
        "harCode"
      ],
      [
        "cooki",
        "e"
      ],
      [
        "Ġon",
        "click"
      ],
      [
        "l",
        "t"
      ],
      [
        "val",
        "ue"
      ],
      [
        "me",
        "nu"
      ],
      [
        "a",
        "tion"
      ],
      [
        "c",
        "t"
      ],
      [
        "loc",
        "ation"
      ],
      [
        "u",
        "te"
      ],
      [
        "Ġonmouse",
        "over"
      ],
      [
        "m",
        "l"
      ],
      [
        "g",
        "t"
      ],
      [
        "Ġ",
        "value"
      ],
      [
        "r",
        "u"
      ],
      [
        "Ġ",
        "he"
      ],
      [
        "p",
        "r"
      ],
      [
        "e",
        "m"
      ],
      [
        "q",
        "u"
      ],
      [
        "/",
        ">"
      ],
      [
        "w",
        "e"
      ],
      [
        "\\",
        "\\"
      ],
      [
        "s",
        "li"
      ],
      [
        "{",
        "}</"
      ],
      [
        "we",
        "b"
      ],
      [
        "sli",
        "de"
      ],
      [
        "web",
        "ki"
      ],
      [
        "ite",
        "ration"
      ],
      [
        "Ġhe",
        "re"
      ],
      [
        "slide",
        "in"
      ],
      [
        "Ġon",
        "webki"
      ],
      [
        ")",
        ">\""
      ],
      [
        "f",
        "t"
      ],
      [
        "p",
        "a"
      ],
      [
        "Ġ",
        "\"\"\""
      ],
      [
        "togg",
        "le"
      ],
      [
        "Ġ",
        "10"
      ],
      [
        "Ġ",
        "po"
      ],
      [
        "Ġpo",
        "po"
      ],
      [
        "C",
        "svg"
      ],
      [
        "Ġonmouse",
        "enter"
      ],
      [
        "o",
        "l"
      ],
      [
        "le",
        "ft"
      ],
      [
        ";",
        "}"
      ],
      [
        "d",
        "y"
      ],
      [
        "c",
        "el"
      ],
      [
        "can",
        "cel"
      ],
      [
        "i",
        "de"
      ],
      [
        "t",
        "h"
      ],
      [
        "ha",
        "sh"
      ],
      [
        "se",
        "t"
      ],
      [
        "ac",
        "ti"
      ],
      [
        "bo",
        "dy"
      ],
      [
        "va",
        "te"
      ],
      [
        "acti",
        "vate"
      ],
      [
        ";",
        "\"\""
      ],
      [
        "co",
        "l"
      ],
      [
        "g",
        "ro"
      ],
      [
        "pti",
        "on"
      ],
      [
        "i",
        "p"
      ],
      [
        "e",
        "x"
      ],
      [
        "c",
        "a"
      ],
      [
        "\\",
        "\"\""
      ],
      [
        "u",
        "r"
      ],
      [
        "i",
        "frame"
      ],
      [
        "a",
        "mp"
      ],
      [
        ";",
        "&"
      ],
      [
        "x",
        "t"
      ],
      [
        "a",
        "se"
      ],
      [
        ")",
        "%"
      ],
      [
        "te",
        "r"
      ],
      [
        "gro",
        "up"
      ],
      [
        "-",
        "-"
      ],
      [
        "in",
        "t"
      ],
      [
        "pr",
        "int"
      ],
      [
        "da",
        "ta"
      ],
      [
        "sp",
        "an"
      ],
      [
        "6",
        "1"
      ],
      [
        "Ġ",
        "S"
      ],
      [
        "o",
        "t"
      ],
      [
        "ima",
        "ge"
      ],
      [
        "n",
        "imation"
      ],
      [
        "ta",
        "nimation"
      ],
      [
        "Ġonwebki",
        "tanimation"
      ],
      [
        "8",
        "0"
      ],
      [
        "u",
        "l"
      ],
      [
        "p",
        "y"
      ],
      [
        "(",
        "\"\""
      ],
      [
        "co",
        "py"
      ],
      [
        ")",
        "/>"
      ],
      [
        "c",
        "ut"
      ],
      [
        ";",
        "&#"
      ],
      [
        "Ġon",
        "toggle"
      ],
      [
        "p",
        "ress"
      ],
      [
        "s",
        "u"
      ],
      [
        "g",
        "in"
      ],
      [
        "re",
        "a"
      ],
      [
        "mo",
        "ve"
      ],
      [
        "in",
        "k"
      ],
      [
        "be",
        "d"
      ],
      [
        "em",
        "bed"
      ],
      [
        "po",
        "s"
      ],
      [
        "ma",
        "r"
      ],
      [
        "ht",
        "ml"
      ],
      [
        "Ġ",
        "%"
      ],
      [
        "a",
        "u"
      ],
      [
        "docu",
        "m"
      ],
      [
        "R",
        "C"
      ],
      [
        "so",
        "u"
      ],
      [
        "re",
        "f"
      ],
      [
        "(",
        ")"
      ],
      [
        "i",
        "g"
      ],
      [
        "sv",
        "G"
      ],
      [
        "r",
        "i"
      ],
      [
        "S",
        "C"
      ],
      [
        "P",
        "T"
      ],
      [
        "R",
        "I"
      ],
      [
        "le",
        "ment"
      ],
      [
        "ide",
        "o"
      ],
      [
        "v",
        "ideo"
      ],
      [
        "he",
        "ad"
      ],
      [
        "2",
        "0"
      ],
      [
        "00",
        "61"
      ],
      [
        "m",
        "ma"
      ],
      [
        ")",
        "><"
      ],
      [
        "o",
        "m"
      ],
      [
        "SC",
        "RI"
      ],
      [
        "h",
        "ref"
      ],
      [
        "di",
        "o"
      ],
      [
        "1",
        "1"
      ],
      [
        "au",
        "dio"
      ],
      [
        "ca",
        "ption"
      ],
      [
        "ĠS",
        "RC"
      ],
      [
        "SCRI",
        "PT"
      ],
      [
        ")",
        "\""
      ],
      [
        "u",
        "re"
      ],
      [
        "de",
        "r"
      ],
      [
        "00",
        "00"
      ],
      [
        "t",
        "p"
      ],
      [
        "=",
        "'"
      ],
      [
        "C",
        "lick"
      ],
      [
        "ti",
        "t"
      ],
      [
        "x",
        "x"
      ],
      [
        "a",
        "s"
      ],
      [
        "Ġ",
        "e"
      ],
      [
        "fi",
        "g"
      ],
      [
        "c",
        "tion"
      ],
      [
        ";",
        "."
      ],
      [
        "x",
        "ss"
      ],
      [
        "so",
        "l"
      ],
      [
        "ta",
        "te"
      ],
      [
        "an",
        "ima"
      ],
      [
        "anima",
        "te"
      ],
      [
        "(",
        "%"
      ],
      [
        "e",
        "lement"
      ],
      [
        ");",
        "}</"
      ],
      [
        "conso",
        "l"
      ],
      [
        "e",
        "c"
      ],
      [
        "I",
        "M"
      ],
      [
        "T",
        "ab"
      ],
      [
        "u",
        "nt"
      ],
      [
        "st",
        "e"
      ],
      [
        "Ġon",
        "drop"
      ],
      [
        "c",
        "R"
      ],
      [
        "pos",
        "ition"
      ],
      [
        "(",
        ")></"
      ],
      [
        "=",
        "&#"
      ],
      [
        "ab",
        "sol"
      ],
      [
        "absol",
        "ute"
      ],
      [
        "scr",
        "ol"
      ],
      [
        "co",
        "unt"
      ],
      [
        "1",
        "80"
      ],
      [
        "d",
        "u"
      ],
      [
        "Ġon",
        "copy"
      ],
      [
        "rc",
        "e"
      ],
      [
        "sou",
        "rce"
      ],
      [
        "ht",
        "tp"
      ],
      [
        "du",
        "ration"
      ],
      [
        "l",
        "l"
      ],
      [
        "Ġ",
        "2"
      ],
      [
        "ru",
        "n"
      ],
      [
        "tit",
        "le"
      ],
      [
        "â",
        "Ģ"
      ],
      [
        "Ġ",
        "slidein"
      ],
      [
        "Ġ{",
        "}</"
      ],
      [
        "p",
        "e"
      ],
      [
        "Ġon",
        "cut"
      ],
      [
        "scr",
        "ip"
      ],
      [
        "Ġonbe",
        "gin"
      ],
      [
        "IM",
        "G"
      ],
      [
        "Ġ",
        "ro"
      ],
      [
        "de",
        "g"
      ],
      [
        "Ġro",
        "tate"
      ],
      [
        "a",
        "rget"
      ],
      [
        "Ġondrag",
        "leave"
      ],
      [
        "Ġontransition",
        "run"
      ],
      [
        "Ġonkey",
        "press"
      ],
      [
        "O",
        "n"
      ],
      [
        "Ġ",
        "0"
      ],
      [
        "Ġ",
        "href"
      ],
      [
        "\"\"",
        ">"
      ],
      [
        "rt",
        "arget"
      ],
      [
        "ve",
        "rtarget"
      ],
      [
        "bl",
        "ur"
      ],
      [
        "Ġpopo",
        "ver"
      ],
      [
        "Ġpopo",
        "vertarget"
      ],
      [
        "n",
        "g"
      ],
      [
        "Ġon",
        "blur"
      ],
      [
        "Ġondrag",
        "start"
      ],
      [
        "Ġonpointe",
        "ro"
      ],
      [
        "tex",
        "ec"
      ],
      [
        "xt",
        "menu"
      ],
      [
        "scrip",
        "texec"
      ],
      [
        "scriptexec",
        "ute"
      ],
      [
        "Ġon",
        "conte"
      ],
      [
        "Ġonmouse",
        "move"
      ],
      [
        "Ġonkey",
        "down"
      ],
      [
        "d",
        "bl"
      ],
      [
        "Ġon",
        "dbl"
      ],
      [
        "Ġonconte",
        "xtmenu"
      ],
      [
        "Ġondbl",
        "click"
      ],
      [
        "Ġondrag",
        "over"
      ],
      [
        "Ġonkey",
        "up"
      ],
      [
        "Ġonmouse",
        "out"
      ],
      [
        "Ġ10",
        "00"
      ],
      [
        "pa",
        "ste"
      ],
      [
        ";}",
        "}"
      ],
      [
        "Ġondrag",
        "enter"
      ],
      [
        "Ġontransition",
        "cancel"
      ],
      [
        "Ġonanimation",
        "cancel"
      ],
      [
        "Ġe",
        "ase"
      ],
      [
        ";}}",
        ":"
      ],
      [
        "=",
        "\\"
      ],
      [
        "a",
        "p"
      ],
      [
        "Ġ",
        "red"
      ],
      [
        "Ġonmouse",
        "up"
      ],
      [
        "o",
        "r"
      ],
      [
        "q",
        "ue"
      ],
      [
        "ta",
        "rea"
      ],
      [
        "Ġonmouse",
        "down"
      ],
      [
        ":",
        "//"
      ],
      [
        "tex",
        "tarea"
      ],
      [
        "click",
        "me"
      ],
      [
        "Ġontransition",
        "end"
      ],
      [
        "rCo",
        "d"
      ],
      [
        "on",
        "error"
      ],
      [
        "))",
        ">\""
      ],
      [
        "Ġonmouse",
        "leave"
      ],
      [
        "fo",
        "o"
      ],
      [
        "Ġondrag",
        "end"
      ],
      [
        ")\"\"",
        ">\""
      ],
      [
        "\"\"",
        "><"
      ],
      [
        "2",
        "5"
      ],
      [
        "de",
        "activate"
      ],
      [
        "Ġonfocus",
        "out"
      ],
      [
        "c",
        "u"
      ],
      [
        "on",
        "t"
      ],
      [
        "ap",
        "p"
      ],
      [
        "f",
        "ont"
      ],
      [
        "j",
        "e"
      ],
      [
        "b",
        "je"
      ],
      [
        "bje",
        "ct"
      ],
      [
        "s",
        "cR"
      ],
      [
        "co",
        "N"
      ],
      [
        "va",
        "r"
      ],
      [
        "qu",
        "ot"
      ],
      [
        "mar",
        "que"
      ],
      [
        "marque",
        "e"
      ],
      [
        "p",
        "ro"
      ],
      [
        "\"\"",
        ">\""
      ],
      [
        "su",
        "b"
      ],
      [
        "E",
        "nt"
      ],
      [
        "no",
        "script"
      ],
      [
        "/",
        "%"
      ],
      [
        ";",
        "\""
      ],
      [
        "ti",
        "me"
      ],
      [
        "ip",
        "T"
      ],
      [
        "h",
        "r"
      ],
      [
        "i",
        "t"
      ],
      [
        ";",
        "("
      ],
      [
        ";",
        "/"
      ],
      [
        ">",
        "]"
      ],
      [
        "la",
        "te"
      ],
      [
        "2",
        "3"
      ],
      [
        "o",
        "bject"
      ],
      [
        "*",
        "/"
      ],
      [
        "te",
        "mp"
      ],
      [
        "temp",
        "late"
      ],
      [
        "on",
        "load"
      ],
      [
        "b",
        "y"
      ],
      [
        "l",
        "s"
      ],
      [
        "l",
        "ink"
      ],
      [
        "L",
        "o"
      ],
      [
        "le",
        "t"
      ],
      [
        "in",
        "e"
      ],
      [
        "b",
        "ase"
      ],
      [
        "a",
        "a"
      ],
      [
        "t",
        "y"
      ],
      [
        "scR",
        "ipT"
      ],
      [
        "no",
        "embed"
      ],
      [
        "S",
        "v"
      ],
      [
        "T",
        "Y"
      ],
      [
        "l",
        "E"
      ],
      [
        "fromC",
        "h"
      ],
      [
        "P",
        "t"
      ],
      [
        "p",
        "la"
      ],
      [
        "w",
        "id"
      ],
      [
        "Sv",
        "g"
      ],
      [
        "le",
        "ct"
      ],
      [
        "wid",
        "th"
      ],
      [
        "'",
        ");"
      ],
      [
        "d",
        "O"
      ],
      [
        "oc",
        "U"
      ],
      [
        "ty",
        "pe"
      ],
      [
        "st",
        "r"
      ],
      [
        "se",
        "lect"
      ],
      [
        "4",
        "6"
      ],
      [
        "C",
        "on"
      ],
      [
        "L",
        "E"
      ],
      [
        "do",
        "m"
      ],
      [
        "ru",
        "by"
      ],
      [
        "pro",
        "g"
      ],
      [
        "2",
        "8"
      ],
      [
        "app",
        "let"
      ],
      [
        "prog",
        "ress"
      ],
      [
        ")",
        "//"
      ],
      [
        "2",
        "9"
      ],
      [
        "p",
        "re"
      ],
      [
        "conte",
        "nt"
      ],
      [
        "inte",
        "xt"
      ],
      [
        "pla",
        "intext"
      ],
      [
        "5",
        "8"
      ],
      [
        "b",
        "di"
      ],
      [
        "w",
        "w"
      ],
      [
        "no",
        "br"
      ],
      [
        "e",
        "val"
      ],
      [
        "ig",
        "ht"
      ],
      [
        "s",
        "amp"
      ],
      [
        "co",
        "de"
      ],
      [
        "\"",
        "%"
      ],
      [
        "d",
        "t"
      ],
      [
        "o",
        "ption"
      ],
      [
        "w",
        "br"
      ],
      [
        "li",
        "st"
      ],
      [
        "a",
        "f"
      ],
      [
        "i",
        "s"
      ],
      [
        "10",
        "0"
      ],
      [
        "\"\"\"",
        "%"
      ],
      [
        "frame",
        "set"
      ],
      [
        "C",
        "script"
      ],
      [
        "U",
        "se"
      ],
      [
        "f",
        "n"
      ],
      [
        "s",
        "lo"
      ],
      [
        "t",
        "d"
      ],
      [
        "slo",
        "t"
      ],
      [
        ">",
        "//"
      ],
      [
        "mo",
        "Use"
      ],
      [
        "ad",
        "d"
      ],
      [
        "ĠoN",
        "moUse"
      ],
      [
        "bl",
        "ink"
      ],
      [
        "r",
        "ror"
      ],
      [
        "s",
        "ha"
      ],
      [
        "o",
        "te"
      ],
      [
        "s",
        "he"
      ],
      [
        "sp",
        "ac"
      ],
      [
        "sha",
        "dow"
      ],
      [
        "t",
        "head"
      ],
      [
        "me",
        "ta"
      ],
      [
        "va",
        "s"
      ],
      [
        "he",
        "a"
      ],
      [
        "qu",
        "ote"
      ],
      [
        "as",
        "ide"
      ],
      [
        "add",
        "ress"
      ],
      [
        "ti",
        "ng"
      ],
      [
        "block",
        "quote"
      ],
      [
        "hea",
        "der"
      ],
      [
        "ra",
        "m"
      ],
      [
        "co",
        "mma"
      ],
      [
        "b",
        "ig"
      ],
      [
        "d",
        "fn"
      ],
      [
        "p",
        "i"
      ],
      [
        "s",
        "ma"
      ],
      [
        "s",
        "ting"
      ],
      [
        "ge",
        "n"
      ],
      [
        "key",
        "gen"
      ],
      [
        "no",
        "frames"
      ],
      [
        "sma",
        "ll"
      ],
      [
        "M",
        "o"
      ],
      [
        "i",
        "ls"
      ],
      [
        "m",
        "ul"
      ],
      [
        "r",
        "b"
      ],
      [
        "y",
        "m"
      ],
      [
        "ti",
        "col"
      ],
      [
        "te",
        "st"
      ],
      [
        "ta",
        "ils"
      ],
      [
        "de",
        "tails"
      ],
      [
        "ct",
        "ure"
      ],
      [
        "pi",
        "cture"
      ],
      [
        "mul",
        "ticol"
      ],
      [
        "a",
        "cr"
      ],
      [
        "s",
        "up"
      ],
      [
        "on",
        "ym"
      ],
      [
        "st",
        "ri"
      ],
      [
        "me",
        "ter"
      ],
      [
        "ma",
        "p"
      ],
      [
        "li",
        "sting"
      ],
      [
        "tex",
        "t"
      ],
      [
        "pa",
        "ram"
      ],
      [
        "acr",
        "onym"
      ],
      [
        "stri",
        "ke"
      ],
      [
        "N",
        "t"
      ],
      [
        "i",
        "c"
      ],
      [
        "na",
        "v"
      ],
      [
        "qu",
        "i"
      ],
      [
        "su",
        "mma"
      ],
      [
        "summa",
        "ry"
      ],
      [
        "x",
        "mp"
      ],
      [
        "ite",
        "m"
      ],
      [
        "data",
        "list"
      ],
      [
        "comma",
        "nd"
      ],
      [
        "=",
        "\\\"\""
      ],
      [
        "b",
        "do"
      ],
      [
        "t",
        "t"
      ],
      [
        "on",
        "g"
      ],
      [
        "se",
        "ction"
      ],
      [
        "L",
        "e"
      ],
      [
        "n",
        "ex"
      ],
      [
        "can",
        "vas"
      ],
      [
        "menu",
        "item"
      ],
      [
        "TY",
        "LE"
      ],
      [
        "str",
        "ong"
      ],
      [
        "D",
        "ocU"
      ],
      [
        "t",
        "fo"
      ],
      [
        "ti",
        "d"
      ],
      [
        "me",
        "Nt"
      ],
      [
        "ro",
        "M"
      ],
      [
        "out",
        "put"
      ],
      [
        "ab",
        "br"
      ],
      [
        "nex",
        "tid"
      ],
      [
        "DocU",
        "meNt"
      ],
      [
        "tfo",
        "ot"
      ],
      [
        "k",
        "b"
      ],
      [
        "le",
        "ge"
      ],
      [
        "in",
        "s"
      ],
      [
        "re",
        "s"
      ],
      [
        "col",
        "group"
      ],
      [
        "lege",
        "nd"
      ],
      [
        "he",
        "ight"
      ],
      [
        "fig",
        "ure"
      ],
      [
        "2",
        "6"
      ],
      [
        "c",
        "O"
      ],
      [
        "scrol",
        "l"
      ],
      [
        "'",
        "><"
      ],
      [
        "R",
        "om"
      ],
      [
        "d",
        "d"
      ],
      [
        "rt",
        "c"
      ],
      [
        "/*",
        "/"
      ],
      [
        "l",
        "O"
      ],
      [
        "lo",
        "w"
      ],
      [
        "Ġonpointer",
        "down"
      ],
      [
        "fig",
        "caption"
      ],
      [
        "/",
        "</"
      ],
      [
        "a",
        "log"
      ],
      [
        "d",
        "l"
      ],
      [
        "di",
        "r"
      ],
      [
        "tra",
        "ck"
      ],
      [
        "he",
        "el"
      ],
      [
        "art",
        "ic"
      ],
      [
        "artic",
        "le"
      ],
      [
        "c",
        "enter"
      ],
      [
        "l",
        "ine"
      ],
      [
        "Ġon",
        "lo"
      ],
      [
        "di",
        "alog"
      ],
      [
        "re",
        "qui"
      ],
      [
        "co",
        "m"
      ],
      [
        "Ġondrag",
        "ex"
      ],
      [
        "Ġondragex",
        "it"
      ],
      [
        "Ġon",
        "activate"
      ],
      [
        "de",
        "l"
      ],
      [
        "Ġonwebkitanimation",
        "start"
      ],
      [
        "mar",
        "k"
      ],
      [
        "kb",
        "d"
      ],
      [
        "\"",
        "'"
      ],
      [
        "/",
        ">\""
      ],
      [
        "H",
        "T"
      ],
      [
        "i",
        "on"
      ],
      [
        "o",
        "pt"
      ],
      [
        "w",
        "heel"
      ],
      [
        "spac",
        "er"
      ],
      [
        "opt",
        "group"
      ],
      [
        "C",
        "u"
      ],
      [
        "e",
        "n"
      ],
      [
        "h",
        "group"
      ],
      [
        "r",
        "der"
      ],
      [
        "da",
        "te"
      ],
      [
        "Ġonpointer",
        "leave"
      ],
      [
        "bo",
        "rder"
      ],
      [
        "requi",
        "res"
      ],
      [
        "5",
        "00"
      ],
      [
        "c",
        "h"
      ],
      [
        "t",
        "body"
      ],
      [
        "Ġ",
        "scroll"
      ],
      [
        "Ġonmouse",
        "wheel"
      ],
      [
        "up",
        "date"
      ],
      [
        "Ġonanimation",
        "end"
      ],
      [
        "Ġscroll",
        "ing"
      ],
      [
        "d",
        "set"
      ],
      [
        "u",
        "n"
      ],
      [
        "fi",
        "el"
      ],
      [
        "Ġonpointer",
        "up"
      ],
      [
        "ur",
        "l"
      ],
      [
        "fiel",
        "dset"
      ],
      [
        "A",
        "d"
      ],
      [
        "a",
        "uto"
      ],
      [
        "Ġonanimation",
        "iteration"
      ],
      [
        "(",
        ")\"\"></"
      ],
      [
        "w",
        "update"
      ],
      [
        "ra",
        "wupdate"
      ],
      [
        "lo",
        "Ad"
      ],
      [
        "Ġonbefore",
        "scriptexecute"
      ],
      [
        "\\\\",
        "\\\\"
      ],
      [
        "Ġonwebkitanimation",
        "iteration"
      ],
      [
        "m",
        "Ent"
      ],
      [
        "Ġon",
        "paste"
      ],
      [
        "re",
        "nter"
      ],
      [
        "do",
        "Cu"
      ],
      [
        "out",
        "line"
      ],
      [
        "Ġonpointer",
        "rawupdate"
      ],
      [
        "Ġonanimation",
        "start"
      ],
      [
        "Ġonwebkitanimation",
        "end"
      ],
      [
        "doCu",
        "mEnt"
      ],
      [
        "h",
        "A"
      ],
      [
        "\"\"",
        "></"
      ],
      [
        "la",
        "be"
      ],
      [
        "Ġontransition",
        "start"
      ],
      [
        ";\"\"",
        "><"
      ],
      [
        "Ġonpointero",
        "ut"
      ],
      [
        "foo",
        "ter"
      ],
      [
        "labe",
        "l"
      ],
      [
        "'",
        ";"
      ],
      [
        "c",
        "ite"
      ],
      [
        "f",
        "uz"
      ],
      [
        "r",
        "p"
      ],
      [
        "z",
        "element"
      ],
      [
        "Ġonbefore",
        "cut"
      ],
      [
        "Ġonpointero",
        "ver"
      ],
      [
        "fuz",
        "zelement"
      ],
      [
        "E",
        "F"
      ],
      [
        "a",
        "rea"
      ],
      [
        "f",
        "low"
      ],
      [
        "t",
        "transition"
      ],
      [
        "Ġonbefore",
        "input"
      ],
      [
        "Ġonbefore",
        "toggle"
      ],
      [
        "over",
        "flow"
      ],
      [
        "Ġonwebki",
        "ttransition"
      ],
      [
        "af",
        "ter"
      ],
      [
        "Ġonwebkittransition",
        "end"
      ],
      [
        "Ġon",
        "after"
      ],
      [
        "Ġonpointe",
        "renter"
      ],
      [
        "Ġonbefore",
        "copy"
      ],
      [
        "'",
        ")>"
      ],
      [
        "T",
        "i"
      ],
      [
        "Ġ",
        "da"
      ],
      [
        "le",
        "nd"
      ],
      [
        "Ġon",
        "scrol"
      ],
      [
        "Ġonfocus",
        "in"
      ],
      [
        "she",
        "d"
      ],
      [
        "Ġonafter",
        "scriptexecute"
      ],
      [
        "Ġda",
        "shed"
      ],
      [
        "Ġonscrol",
        "lend"
      ],
      [
        "M",
        "E"
      ],
      [
        "Ġonbefore",
        "activate"
      ],
      [
        "7",
        "4"
      ],
      [
        "n",
        "e"
      ],
      [
        "en",
        "T"
      ],
      [
        "M",
        "enT"
      ],
      [
        "Ġonbefore",
        "paste"
      ],
      [
        "cu",
        "MenT"
      ],
      [
        "dO",
        "cuMenT"
      ],
      [
        "'",
        "`"
      ],
      [
        "T",
        "A"
      ],
      [
        "b",
        "a"
      ],
      [
        ")",
        "&"
      ],
      [
        "R",
        "m"
      ],
      [
        "Ġonpointer",
        "move"
      ],
      [
        "M",
        "L"
      ],
      [
        "Ġon",
        "deactivate"
      ],
      [
        "Ġonbefore",
        "deactivate"
      ],
      [
        "press",
        "ion"
      ],
      [
        "\"",
        "&"
      ],
      [
        "E",
        "r"
      ],
      [
        "O",
        "mp"
      ],
      [
        "o",
        "v"
      ],
      [
        "fi",
        "Rm"
      ],
      [
        "pr",
        "Omp"
      ],
      [
        "coN",
        "fiRm"
      ],
      [
        "prOmp",
        "T"
      ],
      [
        ")",
        "/%"
      ],
      [
        "[",
        "\"\""
      ],
      [
        "6",
        "0"
      ],
      [
        ">",
        "\\"
      ],
      [
        "()",
        "//"
      ],
      [
        "Lo",
        "g"
      ],
      [
        "Ġon",
        "togg"
      ],
      [
        "an",
        "ge"
      ],
      [
        "so",
        "Le"
      ],
      [
        "coN",
        "soLe"
      ],
      [
        "Ġontogg",
        "l"
      ],
      [
        "C",
        "us"
      ],
      [
        "fo",
        "Cus"
      ],
      [
        "C",
        "O"
      ],
      [
        "Ġ",
        "type"
      ],
      [
        "Ġon",
        "b"
      ],
      [
        ">]",
        "]"
      ],
      [
        "'",
        "]"
      ],
      [
        "=\"\"",
        "\\"
      ],
      [
        "in",
        "dow"
      ],
      [
        "us",
        "e"
      ],
      [
        "to",
        "r"
      ],
      [
        ");",
        "</"
      ],
      [
        ">",
        "/"
      ],
      [
        "')",
        "%"
      ],
      [
        "\\\\",
        "\\"
      ],
      [
        "or",
        "g"
      ],
      [
        "ĠoN",
        "loAd"
      ],
      [
        "ĠoN",
        "foCus"
      ],
      [
        "N",
        "T"
      ],
      [
        "a",
        "lE"
      ],
      [
        "âĢ",
        "Ŀ"
      ],
      [
        "alE",
        "rt"
      ],
      [
        "w",
        "indow"
      ],
      [
        "S",
        "TYLE"
      ],
      [
        "st",
        "om"
      ],
      [
        "ex",
        "pression"
      ],
      [
        "cu",
        "stom"
      ],
      [
        "7",
        "2"
      ],
      [
        "[",
        "'"
      ],
      [
        "c",
        "l"
      ],
      [
        "g",
        "s"
      ],
      [
        "\"\"",
        ")\""
      ],
      [
        "\\\"\"",
        "&"
      ],
      [
        "ba",
        "ck"
      ],
      [
        "=",
        "%"
      ],
      [
        "S",
        "cr"
      ],
      [
        "a",
        "pos"
      ],
      [
        "Ġon",
        "Mo"
      ],
      [
        "Ġta",
        "gs"
      ],
      [
        "')",
        ">\""
      ],
      [
        "')",
        "/>"
      ],
      [
        "--",
        ">]]"
      ],
      [
        "xx",
        "x"
      ],
      [
        ">]",
        "</"
      ],
      [
        "'`",
        "-->]]"
      ],
      [
        "[\"\"",
        "'`-->]]"
      ],
      [
        "[\"\"'`-->]]",
        ">]</"
      ],
      [
        "0",
        "9"
      ],
      [
        "I",
        "n"
      ],
      [
        "c",
        "tor"
      ],
      [
        "\"\"",
        ";"
      ],
      [
        "st",
        "ru"
      ],
      [
        "ve",
        "nt"
      ],
      [
        "a",
        "t"
      ],
      [
        "stru",
        "ctor"
      ],
      [
        "!",
        "--"
      ],
      [
        ";",
        "="
      ],
      [
        "A",
        "le"
      ],
      [
        "I",
        "rm"
      ],
      [
        "R",
        "t"
      ],
      [
        "c",
        "On"
      ],
      [
        "f",
        "Irm"
      ],
      [
        "Ale",
        "Rt"
      ],
      [
        "cOn",
        "fIrm"
      ],
      [
        ">",
        "/*/"
      ],
      [
        "con",
        "structor"
      ],
      [
        "Ġ'",
        "\""
      ],
      [
        "4",
        "0"
      ],
      [
        "r",
        "ite"
      ],
      [
        "w",
        "rite"
      ],
      [
        "x",
        "E"
      ],
      [
        "Ġ",
        "="
      ],
      [
        "mo",
        "tion"
      ],
      [
        "animate",
        "transform"
      ],
      [
        "'",
        ","
      ],
      [
        "I",
        "ck"
      ],
      [
        "))",
        "/>\""
      ],
      [
        "ĠoN",
        "cl"
      ],
      [
        "animate",
        "motion"
      ],
      [
        "un",
        "ction"
      ],
      [
        "ĠoNcl",
        "Ick"
      ],
      [
        "B",
        "C"
      ],
      [
        "X",
        "X"
      ],
      [
        "p",
        "Rom"
      ],
      [
        "))",
        "%"
      ],
      [
        "Ent",
        "Er"
      ],
      [
        "ww",
        "w"
      ],
      [
        "ĠoNmoUse",
        "EntEr"
      ],
      [
        "pRom",
        "Pt"
      ],
      [
        "(",
        "/"
      ],
      [
        "1",
        "23"
      ],
      [
        "S",
        "T"
      ],
      [
        "=\"\"",
        "\""
      ],
      [
        "G",
        "g"
      ],
      [
        "G",
        "in"
      ],
      [
        "O",
        "le"
      ],
      [
        "b",
        "g"
      ],
      [
        ")\"\"",
        ","
      ],
      [
        "lo",
        "G"
      ],
      [
        "er",
        "T"
      ],
      [
        "ns",
        "Ole"
      ],
      [
        "be",
        "Gin"
      ],
      [
        "ĠoN",
        "beGin"
      ],
      [
        "sou",
        "nd"
      ],
      [
        "cO",
        "nsOle"
      ],
      [
        "bg",
        "sound"
      ],
      [
        "3",
        "3"
      ],
      [
        "A",
        "D"
      ],
      [
        "L",
        "erT"
      ],
      [
        "R",
        "or"
      ],
      [
        "a",
        "LerT"
      ],
      [
        "to",
        "Gg"
      ],
      [
        "ĠoN",
        "toGg"
      ],
      [
        "ĠoNtoGg",
        "lE"
      ],
      [
        "P",
        "roM"
      ],
      [
        "r",
        "O"
      ],
      [
        "Ġ",
        "alert"
      ],
      [
        "er",
        "Ror"
      ],
      [
        "ĠoN",
        "erRor"
      ],
      [
        "is",
        "index"
      ],
      [
        "ProM",
        "pt"
      ],
      [
        "9",
        "9"
      ],
      [
        "O",
        "ve"
      ],
      [
        "4",
        "1"
      ],
      [
        "6",
        "5"
      ],
      [
        "S",
        "ol"
      ],
      [
        "e",
        "t"
      ],
      [
        "}",
        "}"
      ],
      [
        "Ġ",
        "<"
      ],
      [
        "25",
        "3"
      ],
      [
        "Con",
        "Sol"
      ],
      [
        "ĠoNmoUse",
        "Ove"
      ],
      [
        "lO",
        "g"
      ],
      [
        "ConSol",
        "E"
      ],
      [
        "ĠoNmoUseOve",
        "R"
      ],
      [
        "6",
        "3"
      ],
      [
        "=",
        "&"
      ],
      [
        "`",
        "</"
      ],
      [
        "0000",
        "0"
      ],
      [
        ";",
        "#"
      ],
      [
        ";",
        ")"
      ],
      [
        "C",
        "img"
      ],
      [
        "F",
        "i"
      ],
      [
        "a",
        "l"
      ],
      [
        "e",
        "rt"
      ],
      [
        "))",
        "</"
      ],
      [
        "')",
        "</"
      ],
      [
        ">",
        ";"
      ],
      [
        "`",
        "/*"
      ],
      [
        "v",
        "o"
      ],
      [
        "r",
        "M"
      ],
      [
        ");",
        "//"
      ],
      [
        "Con",
        "Fi"
      ],
      [
        "ConFi",
        "rM"
      ],
      [
        "a",
        "i"
      ],
      [
        "f",
        "unction"
      ],
      [
        "Ġx",
        "ml"
      ],
      [
        "vo",
        "id"
      ],
      [
        "L",
        "oc"
      ],
      [
        "i",
        "e"
      ],
      [
        "(\"\"",
        "<"
      ],
      [
        ">//",
        "[\"\"'`-->]]>]</"
      ],
      [
        ")",
        "'"
      ],
      [
        "3",
        "9"
      ],
      [
        "A",
        "ME"
      ],
      [
        "S",
        "h"
      ],
      [
        "f",
        "f"
      ],
      [
        ")",
        ")\"\">\""
      ],
      [
        "I",
        "V"
      ],
      [
        "(",
        "&"
      ],
      [
        "6",
        "4"
      ],
      [
        "7",
        "3"
      ],
      [
        "C",
        "hA"
      ],
      [
        "F",
        "roM"
      ],
      [
        "J",
        "a"
      ],
      [
        "N",
        "g"
      ],
      [
        "V",
        "g"
      ],
      [
        "j",
        "s"
      ],
      [
        "o",
        "k"
      ],
      [
        "r",
        "CO"
      ],
      [
        "x",
        "ml"
      ],
      [
        "Ġ",
        "H"
      ],
      [
        "cr",
        "ipt"
      ],
      [
        "ri",
        "Ng"
      ],
      [
        "11",
        "6"
      ],
      [
        "ch",
        "ange"
      ],
      [
        "ST",
        "riNg"
      ],
      [
        "ChA",
        "rCO"
      ],
      [
        "FroM",
        "ChArCO"
      ],
      [
        "FroMChArCO",
        "de"
      ],
      [
        "6",
        "9"
      ],
      [
        "A",
        "in"
      ],
      [
        "D",
        "om"
      ],
      [
        "M",
        "ai"
      ],
      [
        "s",
        "Vg"
      ],
      [
        "v",
        "ul"
      ],
      [
        "ra",
        "ble"
      ],
      [
        "do",
        "Mai"
      ],
      [
        "base",
        "font"
      ],
      [
        "HT",
        "ML"
      ],
      [
        "ne",
        "rable"
      ],
      [
        "Dom",
        "Ain"
      ],
      [
        "vul",
        "nerable"
      ],
      [
        "doMai",
        "N"
      ],
      [
        "D",
        "e"
      ],
      [
        "O",
        "ki"
      ],
      [
        "Ġ",
        "On"
      ],
      [
        "co",
        "Oki"
      ],
      [
        "00",
        "0"
      ],
      [
        "/*",
        "*/"
      ],
      [
        "coOki",
        "E"
      ],
      [
        "7",
        "0"
      ],
      [
        "A",
        "ti"
      ],
      [
        "C",
        "at"
      ],
      [
        "F",
        "R"
      ],
      [
        "H",
        "as"
      ],
      [
        "I",
        "on"
      ],
      [
        "{",
        "{"
      ],
      [
        "á",
        "¨"
      ],
      [
        "lo",
        "Cat"
      ],
      [
        "ha",
        "Sh"
      ],
      [
        "âĢ",
        "Ļ"
      ],
      [
        "Loc",
        "Ati"
      ],
      [
        "FR",
        "AME"
      ],
      [
        "Has",
        "H"
      ],
      [
        "loCat",
        "Ion"
      ],
      [
        "LocAti",
        "On"
      ],
      [
        "4",
        "5"
      ],
      [
        ":",
        "\\"
      ],
      [
        "E",
        "C"
      ],
      [
        "`",
        "'><"
      ],
      [
        "Ġon",
        "Lo"
      ],
      [
        "me",
        "out"
      ],
      [
        "\"\"\"",
        "`'><"
      ],
      [
        "set",
        "Ti"
      ],
      [
        "ca",
        "Ti"
      ],
      [
        "lO",
        "caTi"
      ],
      [
        "hA",
        "sh"
      ],
      [
        "setTi",
        "meout"
      ],
      [
        "lOcaTi",
        "oN"
      ],
      [
        "D",
        "Y"
      ],
      [
        "I",
        "e"
      ],
      [
        "J",
        "EC"
      ],
      [
        "o",
        "K"
      ],
      [
        "o",
        "g"
      ],
      [
        ")\"\"",
        ")\""
      ],
      [
        "cO",
        "ok"
      ],
      [
        "JEC",
        "T"
      ],
      [
        "cOok",
        "Ie"
      ],
      [
        "1",
        "5"
      ],
      [
        "R",
        "e"
      ],
      [
        "S",
        "t"
      ],
      [
        "a",
        "te"
      ],
      [
        "ma",
        "In"
      ],
      [
        "dO",
        "maIn"
      ],
      [
        "\\\\\\",
        "/"
      ],
      [
        "=",
        "`"
      ],
      [
        "in",
        "G"
      ],
      [
        "Co",
        "oK"
      ],
      [
        "CooK",
        "ie"
      ],
      [
        "0",
        "58"
      ],
      [
        "C",
        "H"
      ],
      [
        "C",
        "ha"
      ],
      [
        "E",
        "alert"
      ],
      [
        "I",
        "N"
      ],
      [
        "I",
        "ng"
      ],
      [
        "R",
        "Co"
      ],
      [
        "R",
        "inG"
      ],
      [
        "a",
        "rCod"
      ],
      [
        "f",
        "Rom"
      ],
      [
        "f",
        "rO"
      ],
      [
        "l",
        "y"
      ],
      [
        "m",
        "CH"
      ],
      [
        "u",
        "nd"
      ],
      [
        "mous",
        "e"
      ],
      [
        "ja",
        "v"
      ],
      [
        "Str",
        "Ing"
      ],
      [
        "Ġxml",
        "ns"
      ],
      [
        "St",
        "RinG"
      ],
      [
        "Cha",
        "RCo"
      ],
      [
        "arCod",
        "E"
      ],
      [
        "fRom",
        "ChaRCo"
      ],
      [
        "frO",
        "mCH"
      ],
      [
        "fRomChaRCo",
        "De"
      ],
      [
        "frOmCH",
        "arCodE"
      ],
      [
        "C",
        "ri"
      ],
      [
        "]",
        "."
      ],
      [
        "Ġ",
        "c"
      ],
      [
        "ad",
        "y"
      ],
      [
        ")>",
        "\"\")\""
      ],
      [
        "gro",
        "und"
      ],
      [
        "aa",
        "aa"
      ],
      [
        "back",
        "ground"
      ],
      [
        "Cri",
        "Pt"
      ],
      [
        "(",
        ");"
      ],
      [
        ";",
        "//"
      ],
      [
        "c",
        "e"
      ],
      [
        "o",
        "pe"
      ],
      [
        "Ġ",
        "foo"
      ],
      [
        "on",
        "mouse"
      ],
      [
        "po",
        "rt"
      ],
      [
        "java",
        "s"
      ],
      [
        "ca",
        "ll"
      ],
      [
        "11",
        "4"
      ],
      [
        "ĠonMo",
        "use"
      ],
      [
        "(",
        ")>"
      ],
      [
        "D",
        "A"
      ],
      [
        "D",
        "EF"
      ],
      [
        "n",
        "er"
      ],
      [
        "r",
        "ipt"
      ],
      [
        ");",
        "\"\">\""
      ],
      [
        "))",
        "//"
      ],
      [
        "--",
        "><"
      ],
      [
        "+",
        "'"
      ],
      [
        "B",
        "O"
      ],
      [
        "C",
        "h"
      ],
      [
        "Ġ",
        "\"\""
      ],
      [
        "pa",
        "r"
      ],
      [
        "ĠS",
        "TYLE"
      ],
      [
        "E",
        "NT"
      ],
      [
        "T",
        "P"
      ],
      [
        "i",
        "f"
      ],
      [
        "u",
        "ff"
      ],
      [
        "Ġ",
        "\\"
      ],
      [
        "HT",
        "TP"
      ],
      [
        "onmouse",
        "over"
      ],
      [
        "BO",
        "DY"
      ],
      [
        "1",
        "4"
      ],
      [
        "X",
        "ML"
      ],
      [
        "_",
        "_"
      ],
      [
        "{",
        "}"
      ],
      [
        "¿",
        "½"
      ],
      [
        "ï",
        "¿½"
      ],
      [
        "=\"\"",
        ";"
      ],
      [
        "--",
        ">"
      ],
      [
        "'",
        ">"
      ],
      [
        "1",
        "2"
      ],
      [
        "E",
        "Q"
      ],
      [
        "E",
        "lement"
      ],
      [
        "U",
        "IV"
      ],
      [
        "Ġ",
        "*/"
      ],
      [
        "Ġ",
        "HTTP"
      ],
      [
        "http",
        "s"
      ],
      [
        "EQ",
        "UIV"
      ],
      [
        "R",
        "L"
      ],
      [
        "S",
        "cR"
      ],
      [
        "U",
        "RL"
      ],
      [
        "V",
        "as"
      ],
      [
        "Ġ",
        "&#"
      ],
      [
        "DA",
        "TA"
      ],
      [
        "a",
        "script"
      ],
      [
        "Ġ",
        "Ġ"
      ],
      [
        "\"<",
        ";"
      ],
      [
        "ck",
        "er"
      ],
      [
        "/*",
        "`/*"
      ],
      [
        "th",
        "is"
      ],
      [
        "ope",
        "n"
      ],
      [
        ":",
        "/*"
      ],
      [
        ">",
        "."
      ],
      [
        "S",
        "RC"
      ],
      [
        "Ġ",
        "</"
      ],
      [
        "in",
        "ner"
      ],
      [
        "re",
        "ady"
      ],
      [
        "col",
        "on"
      ],
      [
        ")",
        "."
      ],
      [
        "4",
        "7"
      ],
      [
        "A",
        "BC"
      ],
      [
        "I",
        "FRAME"
      ],
      [
        "R",
        "EF"
      ],
      [
        "S",
        "e"
      ],
      [
        "i",
        "b"
      ],
      [
        "va",
        "script"
      ],
      [
        "âĢ",
        "ĺ"
      ],
      [
        ")",
        "')"
      ],
      [
        "/",
        "><"
      ],
      [
        "1",
        "3"
      ],
      [
        "<",
        "!--"
      ],
      [
        ">",
        ";\""
      ],
      [
        "E",
        "vent"
      ],
      [
        "I",
        "pt"
      ],
      [
        "N",
        "e"
      ],
      [
        "e",
        "vent"
      ],
      [
        "w",
        "L"
      ],
      [
        "de",
        "f"
      ],
      [
        "ME",
        "TA"
      ],
      [
        "ne",
        "w"
      ],
      [
        "9",
        "8"
      ],
      [
        "T",
        "im"
      ],
      [
        "v",
        "A"
      ],
      [
        "st",
        "ate"
      ],
      [
        ");",
        ">\""
      ],
      [
        "Scr",
        "Ipt"
      ],
      [
        "ĠH",
        "REF"
      ],
      [
        "Ne",
        "wL"
      ],
      [
        "NewL",
        "ine"
      ],
      [
        "'",
        "%"
      ],
      [
        "C",
        "k"
      ],
      [
        "u",
        "Se"
      ],
      [
        "x",
        "hr"
      ],
      [
        "Ġ",
        "body"
      ],
      [
        "li",
        "Ck"
      ],
      [
        "java",
        "scr"
      ],
      [
        "Ġa",
        "t"
      ],
      [
        ");",
        "}"
      ],
      [
        "val",
        "id"
      ],
      [
        "ĠonMo",
        "uSe"
      ],
      [
        "XX",
        "X"
      ],
      [
        "call",
        "back"
      ],
      [
        "!",
        "["
      ],
      [
        ")",
        "`"
      ],
      [
        ".",
        "$"
      ],
      [
        "4",
        "9"
      ],
      [
        "<",
        ";"
      ],
      [
        "a",
        "D"
      ],
      [
        "o",
        "p"
      ],
      [
        "af",
        "e"
      ],
      [
        "Mo",
        "use"
      ],
      [
        "CO",
        "NT"
      ],
      [
        "Ja",
        "vA"
      ],
      [
        "CONT",
        "ENT"
      ],
      [
        "JavA",
        "scRipT"
      ],
      [
        ")",
        "}"
      ],
      [
        "1",
        "33"
      ],
      [
        "B",
        "y"
      ],
      [
        "]",
        "]"
      ],
      [
        "a",
        "me"
      ],
      [
        "b",
        "G"
      ],
      [
        "d",
        "C"
      ],
      [
        "g",
        "o"
      ],
      [
        "i",
        "Pt"
      ],
      [
        "j",
        "c"
      ],
      [
        "z",
        "e"
      ],
      [
        "Ġon",
        "B"
      ],
      [
        "style",
        "she"
      ],
      [
        "00",
        "3"
      ],
      [
        "im",
        "port"
      ],
      [
        "rop",
        "ert"
      ],
      [
        "\\\"\"",
        ";"
      ],
      [
        "11",
        "5"
      ],
      [
        "og",
        "le"
      ],
      [
        "inner",
        "HTML"
      ],
      [
        "state",
        "change"
      ],
      [
        "styleshe",
        "et"
      ],
      [
        "/",
        "<"
      ],
      [
        "6",
        "2"
      ],
      [
        "<",
        "<"
      ],
      [
        "P",
        "E"
      ],
      [
        "d",
        "D"
      ],
      [
        "ï",
        "½"
      ],
      [
        "Ġon",
        "P"
      ],
      [
        "ro",
        "w"
      ],
      [
        "re",
        "sh"
      ],
      [
        "('",
        ";"
      ],
      [
        "nu",
        "ll"
      ],
      [
        ";\"\"",
        ">\""
      ],
      [
        "ref",
        "resh"
      ],
      [
        "Ch",
        "ange"
      ],
      [
        "ready",
        "statechange"
      ],
      [
        "Ġat",
        "tr"
      ],
      [
        "ropert",
        "y"
      ],
      [
        "C",
        "K"
      ],
      [
        "E",
        "rror"
      ],
      [
        "N",
        "ame"
      ],
      [
        "N",
        "jc"
      ],
      [
        "a",
        "ge"
      ],
      [
        "p",
        "lay"
      ],
      [
        "s",
        "c"
      ],
      [
        "s",
        "CriPt"
      ],
      [
        "Ġ",
        "name"
      ],
      [
        "))",
        "\""
      ],
      [
        "ml",
        "w"
      ],
      [
        "--",
        "!"
      ],
      [
        "âĢ",
        "ľ"
      ],
      [
        "cker",
        "s"
      ],
      [
        "ib",
        "ute"
      ],
      [
        "Njc",
        "mlw"
      ],
      [
        "8",
        "9"
      ],
      [
        "<",
        ";/"
      ],
      [
        ">",
        "\"\""
      ],
      [
        ">",
        "\"\">\""
      ],
      [
        "m",
        "i"
      ],
      [
        "fo",
        "r"
      ],
      [
        "ĠS",
        "rc"
      ],
      [
        "pro",
        "to"
      ],
      [
        "TY",
        "PE"
      ],
      [
        "');",
        "\"\">\""
      ],
      [
        "JECT",
        "X"
      ],
      [
        "IN",
        "JECTX"
      ],
      [
        "133",
        "7"
      ],
      [
        "Ġattr",
        "ibute"
      ],
      [
        "Njcmlw",
        "dD"
      ],
      [
        "'",
        "/*"
      ],
      [
        "7",
        "6"
      ],
      [
        ";",
        "%"
      ],
      [
        ";",
        ")>\""
      ],
      [
        "G",
        "E"
      ],
      [
        "H",
        "t"
      ],
      [
        "O",
        "U"
      ],
      [
        "]",
        ","
      ],
      [
        "r",
        "E"
      ],
      [
        "Ġ",
        "url"
      ],
      [
        "00",
        "6"
      ],
      [
        "))",
        "/%"
      ],
      [
        "--",
        "></"
      ],
      [
        "au",
        "lt"
      ],
      [
        "scR",
        "ipt"
      ],
      [
        "Ht",
        "tp"
      ],
      [
        "(",
        "`"
      ],
      [
        ")",
        "\\"
      ],
      [
        "/",
        "."
      ],
      [
        "5",
        "3"
      ],
      [
        ";",
        ";"
      ],
      [
        "B",
        "A"
      ],
      [
        "C",
        "DATA"
      ],
      [
        "E",
        "R"
      ],
      [
        "N",
        "D"
      ],
      [
        "S",
        "et"
      ],
      [
        "]",
        "+"
      ],
      [
        "i",
        "ze"
      ],
      [
        "Ġ",
        "to"
      ],
      [
        "Ġ",
        "CONTENT"
      ],
      [
        "ma",
        "ction"
      ],
      [
        "10",
        "5"
      ],
      [
        "10",
        "8"
      ],
      [
        "to",
        "String"
      ],
      [
        "th",
        "row"
      ],
      [
        "ĠonLo",
        "ad"
      ],
      [
        "ScR",
        "iPt"
      ],
      [
        "def",
        "ault"
      ],
      [
        "go",
        "ogle"
      ],
      [
        "(",
        "âĢĺ"
      ],
      [
        ")",
        "-"
      ],
      [
        ";",
        "</"
      ],
      [
        ";",
        ")&"
      ],
      [
        "=",
        "âĢĿ"
      ],
      [
        ">",
        "#"
      ],
      [
        "F",
        "ocU"
      ],
      [
        "S",
        "E"
      ],
      [
        "l",
        "par"
      ],
      [
        "v",
        "i"
      ],
      [
        "Ġ",
        "I"
      ],
      [
        "ma",
        "s"
      ],
      [
        "\"\"\"",
        "'><"
      ],
      [
        "to",
        "p"
      ],
      [
        "//",
        "</"
      ],
      [
        "app",
        "ly"
      ],
      [
        "\\\\\\\\",
        "\\\\\\/"
      ],
      [
        "ĠonLo",
        "aD"
      ],
      [
        "Mouse",
        "Event"
      ],
      [
        "ĠonB",
        "e"
      ],
      [
        "OU",
        "ND"
      ],
      [
        "rE",
        "a"
      ],
      [
        "FocU",
        "s"
      ],
      [
        "'",
        "."
      ],
      [
        "+",
        "/"
      ],
      [
        "3",
        "2"
      ],
      [
        "3",
        "4"
      ],
      [
        ";",
        ")>"
      ],
      [
        "T",
        "e"
      ],
      [
        "c",
        "ss"
      ],
      [
        "i",
        "M"
      ],
      [
        "v",
        "c"
      ],
      [
        "w",
        "a"
      ],
      [
        "Ġ",
        "("
      ],
      [
        "Ġ",
        "`"
      ],
      [
        "Ġ",
        "re"
      ],
      [
        "\"\"",
        "/"
      ],
      [
        "ta",
        "rEa"
      ],
      [
        "ro",
        "ot"
      ],
      [
        "get",
        "Element"
      ],
      [
        ");",
        "&"
      ],
      [
        "oN",
        "loAd"
      ],
      [
        "')",
        "/%"
      ],
      [
        "$",
        "{"
      ],
      [
        "'",
        "+'"
      ],
      [
        "(",
        ")</"
      ],
      [
        "=",
        "="
      ],
      [
        "?",
        "?"
      ],
      [
        "C",
        "ript"
      ],
      [
        "F",
        "script"
      ],
      [
        "I",
        "d"
      ],
      [
        "L",
        "O"
      ],
      [
        "X",
        "tarEa"
      ],
      [
        "Y",
        "le"
      ],
      [
        "\\",
        "/"
      ],
      [
        "h",
        "o"
      ],
      [
        "Ġ",
        "&"
      ],
      [
        "on",
        "click"
      ],
      [
        "st",
        "Yle"
      ],
      [
        "te",
        "XtarEa"
      ],
      [
        "so",
        "me"
      ],
      [
        "tit",
        "Le"
      ],
      [
        "xx",
        "xx"
      ],
      [
        "dC",
        "g"
      ],
      [
        "'",
        ">\""
      ],
      [
        ")",
        "+"
      ],
      [
        "7",
        "5"
      ],
      [
        "8",
        "5"
      ],
      [
        ";",
        "=&#"
      ],
      [
        "B",
        "JECT"
      ],
      [
        "C",
        "L"
      ],
      [
        "N",
        "o"
      ],
      [
        "O",
        "BJECT"
      ],
      [
        "`",
        "%"
      ],
      [
        "l",
        "d"
      ],
      [
        "l",
        "f"
      ],
      [
        "m",
        "it"
      ],
      [
        "o",
        "w"
      ],
      [
        "p",
        "h"
      ],
      [
        "t",
        "ch"
      ],
      [
        "Ġ",
        "/"
      ],
      [
        "Ġ",
        "w"
      ],
      [
        "Ġ",
        "for"
      ],
      [
        "va",
        "scr"
      ],
      [
        "se",
        "c"
      ],
      [
        "se",
        "lf"
      ],
      [
        "ha",
        "r"
      ],
      [
        "/*",
        "<"
      ],
      [
        "0000",
        "0000"
      ],
      [
        "AD",
        "w"
      ],
      [
        "/**/",
        "("
      ],
      [
        "iM",
        "g"
      ],
      [
        "'",
        ")\"\">\""
      ],
      [
        ";",
        "$"
      ],
      [
        "=",
        "/"
      ],
      [
        "=",
        "["
      ],
      [
        "O",
        "N"
      ],
      [
        "P",
        "H"
      ],
      [
        "W",
        "x"
      ],
      [
        "c",
        "sVg"
      ],
      [
        "c",
        "liCk"
      ],
      [
        "e",
        "R"
      ],
      [
        "o",
        "u"
      ],
      [
        "Ġ",
        "}"
      ],
      [
        "Ġ",
        "/>\""
      ],
      [
        "\"\"",
        "/*"
      ],
      [
        "\"\"",
        ")>\""
      ],
      [
        "Ġon",
        "Re"
      ],
      [
        "rc",
        "h"
      ],
      [
        "Ġx",
        "link"
      ],
      [
        "oN",
        "cliCk"
      ],
      [
        "ur",
        "n"
      ],
      [
        "11",
        "2"
      ],
      [
        "='",
        "%"
      ],
      [
        "xss",
        "me"
      ],
      [
        "']",
        "("
      ],
      [
        "Scr",
        "ipt"
      ],
      [
        "Vas",
        "Cript"
      ],
      [
        "By",
        "Id"
      ],
      [
        "ĠonP",
        "roperty"
      ],
      [
        "vi",
        "or"
      ],
      [
        "getElement",
        "ById"
      ],
      [
        "ĠonProperty",
        "Change"
      ],
      [
        "'",
        "))"
      ],
      [
        ".",
        "."
      ],
      [
        "0",
        "3"
      ],
      [
        "3",
        "1"
      ],
      [
        "5",
        "0"
      ],
      [
        "6",
        "7"
      ],
      [
        "9",
        "3"
      ],
      [
        ":",
        "'"
      ],
      [
        ";",
        ">"
      ],
      [
        "B",
        "R"
      ],
      [
        "F",
        "ocus"
      ],
      [
        "G",
        "R"
      ],
      [
        "O",
        "bject"
      ],
      [
        "V",
        "y"
      ],
      [
        "W",
        "ri"
      ],
      [
        "]",
        "("
      ],
      [
        "t",
        "Tim"
      ],
      [
        "x",
        "A"
      ],
      [
        "ã",
        "ĥ"
      ],
      [
        "Ġ",
        "var"
      ],
      [
        "Ġ",
        "BA"
      ],
      [
        "=\"\"",
        "><"
      ],
      [
        "ro",
        "R"
      ],
      [
        "ja",
        "VasCript"
      ],
      [
        "//",
        "[\"\"'`-->]]>]</"
      ],
      [
        "()",
        "}}"
      ],
      [
        "sub",
        "mit"
      ],
      [
        "spac",
        "e"
      ],
      [
        "un",
        "load"
      ],
      [
        "ĠOn",
        "eR"
      ],
      [
        "ce",
        "ss"
      ],
      [
        "CK",
        "GR"
      ],
      [
        "ph",
        "p"
      ],
      [
        "Wri",
        "Te"
      ],
      [
        "ĠBA",
        "CKGR"
      ],
      [
        "ĠOneR",
        "roR"
      ],
      [
        "ĠBACKGR",
        "OUND"
      ],
      [
        "=",
        "("
      ],
      [
        ">",
        "&"
      ],
      [
        "?",
        "><"
      ],
      [
        "I",
        "m"
      ],
      [
        "I",
        "PT"
      ],
      [
        "N",
        "te"
      ],
      [
        "S",
        "tate"
      ],
      [
        "X",
        "B"
      ],
      [
        "\\",
        "`/*"
      ],
      [
        "a",
        "le"
      ],
      [
        "e",
        "Nte"
      ],
      [
        "g",
        "In"
      ],
      [
        "t",
        "he"
      ],
      [
        "v",
        "b"
      ],
      [
        "y",
        "a"
      ],
      [
        "Ġ",
        "-"
      ],
      [
        "Ġon",
        "FocUs"
      ],
      [
        "te",
        "nt"
      ],
      [
        "la",
        "ss"
      ],
      [
        "re",
        "nt"
      ],
      [
        "\"\"\"",
        "/><"
      ],
      [
        "be",
        "ha"
      ],
      [
        "Ġa",
        "uto"
      ],
      [
        "//",
        "\""
      ],
      [
        "()",
        "{"
      ],
      [
        "sub",
        "str"
      ],
      [
        "Con",
        "tent"
      ],
      [
        "Er",
        "rO"
      ],
      [
        "/*`/*",
        "\\`/*"
      ],
      [
        "ĠonMouSe",
        "eNte"
      ],
      [
        "bG",
        "Vy"
      ],
      [
        "Ġattribute",
        "Name"
      ],
      [
        "ĠonBe",
        "gIn"
      ],
      [
        "wa",
        "v"
      ],
      [
        "No",
        "de"
      ],
      [
        "PH",
        "NjcmlwdD"
      ],
      [
        "beha",
        "vior"
      ],
      [
        "ĠonMouSeeNte",
        "R"
      ],
      [
        "bGVy",
        "dCg"
      ],
      [
        "(",
        "\\\"\""
      ],
      [
        "*",
        "//"
      ],
      [
        "+",
        "-"
      ],
      [
        "/",
        "--!"
      ],
      [
        "8",
        "1"
      ],
      [
        ";",
        ")/>"
      ],
      [
        "=",
        "$"
      ],
      [
        ">",
        "%"
      ],
      [
        "O",
        "ver"
      ],
      [
        "`",
        "`"
      ],
      [
        "a",
        "rch"
      ],
      [
        "c",
        "cess"
      ],
      [
        "n",
        "Q"
      ],
      [
        "o",
        "d"
      ],
      [
        "p",
        "er"
      ],
      [
        "Ġ",
        "con"
      ],
      [
        "Ġ",
        "width"
      ],
      [
        "Ġ",
        ")//"
      ],
      [
        "Ġon",
        "ErrO"
      ],
      [
        "=\"\"",
        "&"
      ],
      [
        "\"<",
        "?"
      ],
      [
        ")\"\"",
        "\""
      ],
      [
        "ma",
        "th"
      ],
      [
        "(\"\"",
        "%"
      ],
      [
        "');",
        "\\\"\"&"
      ],
      [
        ")//",
        "\"\">\""
      ],
      [
        "\\\\\\\\",
        "\\\\\\"
      ],
      [
        ":/*",
        "-"
      ],
      [
        "Ġfor",
        "maction"
      ],
      [
        "/**/(",
        "/*"
      ],
      [
        "Ġ)//",
        "%"
      ],
      [
        "ĠonErrO",
        "r"
      ],
      [
        "\"",
        "{{"
      ],
      [
        "&",
        "<"
      ],
      [
        "(",
        "#"
      ],
      [
        ")",
        "("
      ],
      [
        "*",
        "%"
      ],
      [
        "/",
        "&"
      ],
      [
        "/",
        ")"
      ],
      [
        "1",
        "6"
      ],
      [
        "2",
        "1"
      ],
      [
        "7",
        "7"
      ],
      [
        ";",
        "'"
      ],
      [
        "<",
        "%"
      ],
      [
        "=",
        "<"
      ],
      [
        "=",
        "?"
      ],
      [
        "=",
        "//"
      ],
      [
        "A",
        "alert"
      ],
      [
        "D",
        "alert"
      ],
      [
        "G",
        "le"
      ],
      [
        "O",
        "id"
      ],
      [
        "S",
        "afe"
      ],
      [
        "T",
        "og"
      ],
      [
        "]",
        "["
      ],
      [
        "e",
        "d"
      ],
      [
        "h",
        "bGVydCg"
      ],
      [
        "j",
        "p"
      ],
      [
        "r",
        "par"
      ],
      [
        "s",
        "ize"
      ],
      [
        "t",
        "ro"
      ],
      [
        "v",
        "Oid"
      ],
      [
        "Ġ",
        "A"
      ],
      [
        "Ġ",
        "R"
      ],
      [
        "Ġ",
        "javascript"
      ],
      [
        "Ġ",
        "document"
      ],
      [
        "Ġ",
        "-->"
      ],
      [
        "Ġ",
        "TYPE"
      ],
      [
        "on",
        "focus"
      ],
      [
        "Ġon",
        "Error"
      ],
      [
        "Ġon",
        "Tog"
      ],
      [
        ")\"\"",
        "><"
      ],
      [
        "ma",
        "ge"
      ],
      [
        "Ġa",
        "aaaa"
      ],
      [
        "Co",
        "oki"
      ],
      [
        ";\"\"",
        ">"
      ],
      [
        "';",
        ");"
      ],
      [
        "Ġc",
        "lass"
      ],
      [
        "Vas",
        "CriPt"
      ],
      [
        "Ġcon",
        "tro"
      ],
      [
        "ĠonTog",
        "Gle"
      ],
      [
        "Cooki",
        "e"
      ],
      [
        "Ġcontro",
        "ls"
      ],
      [
        "\"",
        "`"
      ],
      [
        "1",
        "7"
      ],
      [
        "1",
        "99"
      ],
      [
        "2",
        "00"
      ],
      [
        ";",
        "(\"\"<"
      ],
      [
        "<",
        "</"
      ],
      [
        "A",
        "mo"
      ],
      [
        "D",
        "IV"
      ],
      [
        "E",
        "L"
      ],
      [
        "K",
        "T"
      ],
      [
        "U",
        "T"
      ],
      [
        "W",
        "BR"
      ],
      [
        "a",
        "sp"
      ],
      [
        "a",
        "to"
      ],
      [
        "b",
        "la"
      ],
      [
        "w",
        "ri"
      ],
      [
        "|",
        "\\"
      ],
      [
        "Ġ",
        "--"
      ],
      [
        "Ġ",
        "this"
      ],
      [
        "on",
        "readystatechange"
      ],
      [
        "\"\"",
        "%"
      ],
      [
        "\"\"",
        ")</"
      ],
      [
        "=\"\"",
        "#"
      ],
      [
        "lo",
        "HT"
      ],
      [
        "se",
        "nd"
      ],
      [
        "SC",
        "R"
      ],
      [
        "que",
        "st"
      ],
      [
        ">;",
        "<;"
      ],
      [
        ")')",
        "()}}"
      ],
      [
        "proto",
        "type"
      ],
      [
        "],",
        "["
      ],
      [
        "ĠI",
        "D"
      ],
      [
        "00000000",
        "40"
      ],
      [
        "Ġauto",
        "play"
      ],
      [
        ":/*-",
        "/*`/*\\`/*"
      ],
      [
        "';);",
        "\"\";"
      ],
      [
        "Amo",
        "loHT"
      ],
      [
        "ato",
        "b"
      ],
      [
        "wri",
        "t"
      ],
      [
        "(",
        ")%"
      ],
      [
        ")",
        "';"
      ],
      [
        "8",
        "4"
      ],
      [
        ">",
        "'"
      ],
      [
        ">",
        "--><"
      ],
      [
        "N",
        "ya"
      ],
      [
        "P",
        "g"
      ],
      [
        "T",
        "ex"
      ],
      [
        "U",
        "n"
      ],
      [
        "V",
        "u"
      ],
      [
        "V",
        "er"
      ],
      [
        "`",
        "//"
      ],
      [
        "d",
        "W"
      ],
      [
        "e",
        "re"
      ],
      [
        "f",
        "in"
      ],
      [
        "s",
        "afe"
      ],
      [
        "x",
        "s"
      ],
      [
        "Ġ",
        "F"
      ],
      [
        "Ġ",
        "in"
      ],
      [
        "Ġ",
        "AnonKryptiQuz"
      ],
      [
        "Ġ",
        "/*"
      ],
      [
        "Ġ",
        "function"
      ],
      [
        "=\"\"",
        "</"
      ],
      [
        "cr",
        "o"
      ],
      [
        "10",
        "00"
      ],
      [
        ")>",
        "%"
      ],
      [
        "Ġa",
        "lt"
      ],
      [
        ");",
        "%"
      ],
      [
        "pa",
        "rent"
      ],
      [
        "Lo",
        "ad"
      ],
      [
        "00000",
        "97"
      ],
      [
        "sc",
        "he"
      ],
      [
        "'/*",
        "\"\""
      ],
      [
        "jp",
        "g"
      ],
      [
        "ĠR",
        "EL"
      ],
      [
        "199",
        "9"
      ],
      [
        "Nya",
        "XB"
      ],
      [
        "\"",
        "?"
      ],
      [
        "\"",
        "</"
      ],
      [
        "\"",
        "&#"
      ],
      [
        "#",
        "<"
      ],
      [
        "'",
        "-"
      ],
      [
        "'",
        "t"
      ],
      [
        ")",
        "{"
      ],
      [
        "2",
        "000"
      ],
      [
        "5",
        "5"
      ],
      [
        "8",
        "6"
      ],
      [
        "9",
        "1"
      ],
      [
        ":",
        "&#"
      ],
      [
        ";",
        ");&"
      ],
      [
        "<",
        "!"
      ],
      [
        "=",
        "#"
      ],
      [
        "A",
        "javascript"
      ],
      [
        "E",
        "ou"
      ],
      [
        "F",
        "F"
      ],
      [
        "T",
        "E"
      ],
      [
        "`",
        "'"
      ],
      [
        "a",
        "ss"
      ],
      [
        "c",
        "ls"
      ],
      [
        "e",
        "alert"
      ],
      [
        "e",
        "ate"
      ],
      [
        "f",
        "a"
      ],
      [
        "j",
        "A"
      ],
      [
        "l",
        "c"
      ],
      [
        "o",
        "Ver"
      ],
      [
        "p",
        "ng"
      ],
      [
        "w",
        "vc"
      ],
      [
        "Ġ",
        ">"
      ],
      [
        "Ġ",
        "/>"
      ],
      [
        "Ġ",
        "title"
      ],
      [
        "Ġ",
        "ON"
      ],
      [
        "Ġ",
        "Content"
      ],
      [
        "on",
        "e"
      ],
      [
        "\"\"",
        ","
      ],
      [
        "Ġon",
        "readystatechange"
      ],
      [
        "cr",
        "eate"
      ],
      [
        "po",
        "p"
      ],
      [
        "so",
        "ft"
      ],
      [
        "im",
        "G"
      ],
      [
        "))",
        ")\""
      ],
      [
        "bo",
        "x"
      ],
      [
        "11",
        "1"
      ],
      [
        "âĢ",
        "ĭ"
      ],
      [
        "25",
        "2"
      ],
      [
        "28",
        "1"
      ],
      [
        "TA",
        "B"
      ],
      [
        ")'",
        ">"
      ],
      [
        "âĢĻ",
        ")"
      ],
      [
        "Tim",
        "Eou"
      ],
      [
        "ĠonMouSe",
        "oVer"
      ],
      [
        "mi",
        "cro"
      ],
      [
        "GE",
        "T"
      ],
      [
        "Set",
        "TimEou"
      ],
      [
        "*//",
        "*"
      ],
      [
        "sche",
        "mas"
      ],
      [
        "cls",
        "id"
      ],
      [
        "micro",
        "soft"
      ],
      [
        "SetTimEou",
        "T"
      ],
      [
        "(",
        "("
      ],
      [
        "/",
        "\\"
      ],
      [
        "/",
        "&#"
      ],
      [
        "0",
        "2"
      ],
      [
        "0",
        "4"
      ],
      [
        "0",
        "6"
      ],
      [
        "0",
        "39"
      ],
      [
        "8",
        "7"
      ],
      [
        ":",
        ","
      ],
      [
        "B",
        "o"
      ],
      [
        "D",
        "x"
      ],
      [
        "E",
        "va"
      ],
      [
        "H",
        "E"
      ],
      [
        "H",
        "R"
      ],
      [
        "P",
        "A"
      ],
      [
        "S",
        "u"
      ],
      [
        "[",
        "/"
      ],
      [
        "]",
        "><"
      ],
      [
        "a",
        "st"
      ],
      [
        "f",
        "script"
      ],
      [
        "f",
        "al"
      ],
      [
        "j",
        "o"
      ],
      [
        "ã",
        "Ĥ"
      ],
      [
        "Ġ",
        "?"
      ],
      [
        "Ġ",
        "//"
      ],
      [
        "Ġ",
        "html"
      ],
      [
        "Ġ",
        "DATA"
      ],
      [
        "on",
        "se"
      ],
      [
        "\"\"",
        "\"<"
      ],
      [
        "\"\"",
        "//"
      ],
      [
        "\"\"",
        "'><"
      ],
      [
        "st",
        "at"
      ],
      [
        "><",
        "!["
      ],
      [
        "me",
        "n"
      ],
      [
        "ma",
        "tch"
      ],
      [
        "sp",
        "onse"
      ],
      [
        "re",
        "sponse"
      ],
      [
        "ge",
        "st"
      ],
      [
        "00",
        "65"
      ],
      [
        ");",
        "\""
      ],
      [
        "')",
        ")\"\">\""
      ],
      [
        "()",
        "/*"
      ],
      [
        "25",
        "0"
      ],
      [
        "25",
        "253"
      ],
      [
        "');",
        "</"
      ],
      [
        ")//",
        "\""
      ],
      [
        "()//",
        ">\\"
      ],
      [
        ")'",
        ">\""
      ],
      [
        "Ja",
        "V"
      ],
      [
        "á¨",
        "Ĩ"
      ],
      [
        "valid",
        "audio"
      ],
      [
        "har",
        "set"
      ],
      [
        "Im",
        "g"
      ],
      [
        "/--!",
        ">\\"
      ],
      [
        "\"`",
        "\"\"'><"
      ],
      [
        ":/*-/*`/*\\`/*",
        "'/*\"\""
      ],
      [
        "Tex",
        "t"
      ],
      [
        "xs",
        "l"
      ],
      [
        "TAB",
        "LE"
      ],
      [
        "Eva",
        "L"
      ],
      [
        "ast",
        "Node"
      ],
      [
        "response",
        "Text"
      ],
      [
        ":/*-/*`/*\\`/*'/*\"\"",
        "/**/(/*"
      ],
      [
        "(",
        "&#"
      ],
      [
        ",",
        "'"
      ],
      [
        "1",
        "10"
      ],
      [
        "3",
        "0"
      ],
      [
        "4",
        "8"
      ],
      [
        "5",
        "7"
      ],
      [
        ";",
        "\\"
      ],
      [
        ";",
        ")</"
      ],
      [
        "=",
        "+"
      ],
      [
        "=",
        "=\"\""
      ],
      [
        ">",
        "&#"
      ],
      [
        "A",
        "SS"
      ],
      [
        "C",
        "liCk"
      ],
      [
        "F",
        "javascript"
      ],
      [
        "O",
        "R"
      ],
      [
        "P",
        "age"
      ],
      [
        "R",
        "S"
      ],
      [
        "Y",
        "Wx"
      ],
      [
        "[",
        "]."
      ],
      [
        "a",
        "utofocus"
      ],
      [
        "b",
        "W"
      ],
      [
        "c",
        "script"
      ],
      [
        "k",
        "s"
      ],
      [
        "o",
        "f"
      ],
      [
        "p",
        "le"
      ],
      [
        "u",
        "FF"
      ],
      [
        "x",
        "click"
      ],
      [
        "y",
        "s"
      ],
      [
        "Ġ",
        "*"
      ],
      [
        "Ġ",
        "s"
      ],
      [
        "Ġ",
        "CL"
      ],
      [
        "Ġ",
        "Page"
      ],
      [
        "Ġon",
        "CliCk"
      ],
      [
        "di",
        "mage"
      ],
      [
        "ta",
        "g"
      ],
      [
        "va",
        "li"
      ],
      [
        "10",
        "6"
      ],
      [
        "se",
        "arch"
      ],
      [
        "im",
        "ple"
      ],
      [
        "Ġ'",
        "+"
      ],
      [
        "Ġhe",
        "ight"
      ],
      [
        "pa",
        "ge"
      ],
      [
        "au",
        "xclick"
      ],
      [
        "()",
        "."
      ],
      [
        "0000",
        "000"
      ],
      [
        "}}",
        "\""
      ],
      [
        "ĠonMouse",
        "Over"
      ],
      [
        ">.",
        ".."
      ],
      [
        "Ġname",
        "space"
      ],
      [
        "ĠonRe",
        "size"
      ],
      [
        "';);\"\";",
        ">;\""
      ],
      [
        "jo",
        "in"
      ],
      [
        "stat",
        "us"
      ],
      [
        "JaV",
        "a"
      ],
[...]
